#version: 0.2 - Trained by `huggingface/tokenizers`
Ġ t
Ġ a
h e
i n
r e
Ġt he
o n
e r
Ġ s
Ġ w
a t
Ġ o
e n
Ġ c
i t
i s
a n
o r
Ġ b
e s
e d
Ġ f
in g
Ġ p
o u
Ġa n
a l
Ġt o
a r
Ġ m
Ġ in
Ġo f
Ġ h
Ġ d
â Ģ
a s
i c
Ġan d
Ġt h
l e
o m
i on
l l
en t
Ġ n
Ġ l
Ġ re
s t
v e
Ġ e
l y
r o
Ġb e
Ġ g
i d
u t
a c
o t
Ġ T
Ġ I
Ġth at
Ġ on
a y
Ġ S
Ġ is
e t
i m
a m
a d
o w
i g
s e
Ġf or
âĢ Ļ
Ġ A
v er
c t
u r
l d
Ġ C
Ġ u
Ġs t
Ġ y
Ġ it
Ġ he
i r
at ion
it h
Ġw h
Ġ M
c e
t er
o l
Ġw e
i l
Ġw ith
Ġa s
Ġ B
c h
i ll
n d
Ġw as
Ġ P
er s
Ġy ou
k e
Ġ âĢ
Ġc on
Ġd e
Ġ r
he r
i f
at e
a g
Ġa t
Ġ W
Ġh a
Ġs e
Ġ H
o re
Ġp ro
u l
p p
m ent
r i
Ġ D
Ġa re
es t
u s
Ġc om
is t
Ġ 1
an d
Ġ R
o p
a in
ĠT he
Ġ 2
ig h
r om
t h
Ġ (
o d
Ġ F
Ġn e
u m
Ġe x
u n
re s
a b
âĢ Ŀ
Ġn ot
Ġ N
Ġ v
es s
it y
Ġha ve
e m
ou ld
Ġo r
or t
Ġb y
o s
Ġ G
an t
i ve
Ġf rom
Ġa l
e l
' s
o c
Ġs u
ar t
Ġ L
Ġs h
n t
Ġth is
q u
igh t
p e
u st
Ġ le
i es
Ġ E
en d
Ġc h
Ġs a
ou t
Ġa b
T he
al l
i e
ac k
0 0
re d
ĠâĢ ľ
al ly
Ġh as
Ġ J
Ġp l
Ġg o
ar d
i v
Ġh is
om e
a p
o st
g h
Ġ O
e ar
Ġt r
ou r
as t
Ġ j
a k
u d
Ġw or
Ġd o
Ġthe y
Ġb ut
r ou
g e
Ġc an
Ġw ill
Ġsa id
Ġw he
Ġ U
ic h
Ġ k
o k
Ġa ll
Ġ "
Ġwh o
id e
Ġin t
am e
an s
t her
i al
Ġo ut
Ġthe ir
f f
on g
e ct
ic e
p l
u re
p t
ag e
on e
Ġm ore
ion s
ac t
i ke
Ġm e
Ġu p
ou s
in e
Ġa d
Ġab out
r a
at ed
b er
Ġwe re
Ġon e
Ġs o
Ġu s
o g
im e
e p
Ġ K
Ġh ad
a re
i a
u b
c c
Ġw ould
Ġ2 0
Ġc l
Ġwh ich
Ġ im
in d
u e
a ke
i z
Ġcon t
Ġa g
ver y
Ġt e
Ġof f
Ġcom p
Ġu n
Ġbe en
ĠS t
Ġ en
s o
p er
ig n
a u
ĠT h
ar y
e w
i p
ac e
Ġy ear
Ġl ike
e re
v en
o ok
Ġin c
ay s
Ġp e
Ġm an
r y
o se
it e
Ġre s
ab le
Ġp er
as s
Ġs p
or d
ĠI n
i re
Ġo ther
m er
Ġs ome
i le
en ce
i b
op le
Ġ20 1
k s
ation s
Ġo ver
ic al
Ġthe re
res s
ul t
Ġd is
in t
Ġne w
ow n
Ġal so
Ġth an
Ġa r
Ġbe c
r u
Ġthe m
an ce
ou gh
ou nt
Ġa pp
p ort
Ġwhe n
a il
Ġp art
Ġyou r
re e
Ġwh at
on d
Ġpe ople
or m
Ġs c
f ter
a v
as e
Ġ qu
ĠC h
Ġan y
Ġj ust
Ġ Y
Ġit s
ac h
Ġt ime
ĠI t
Ġk n
Ġhe r
Ġre c
l ic
en s
re at
Ġg et
Ġ if
Ġm y
Ġ 3
Ġ V
. âĢĿ
i an
Ġint o
Ġwor k
ou nd
ir st
Ġt w
ct ion
ve l
Ġn o
d u
ing s
or y
id ent
or s
it ion
Ġo ur
ic k
Ġ -
o b
Ġp re
an g
o ve
am p
Ġpl ay
w n
in k
au se
t e
ad e
at es
h ing
ar k
Ġ ro
Ġp ol
Ġs he
ver s
Ġc o
, âĢĿ
Ġa fter
Ġ1 9
ĠH e
Ġf irst
Ġh ow
Ġc ould
n e
i ous
nd er
Ġh im
Ġa cc
i ld
a w
' t
on s
Ġp o
Ġf e
Ġat t
Ġon ly
ic t
he d
Ġp r
r it
Ġtw o
o v
is h
Ġcom m
Ġs pe
âĢ ľ
f orm
Ġa ct
w e
Ġb l
er v
f t
Ġbe t
. "
Ġde c
n ing
Ġb ack
Ġm ost
c es
o od
c k
Ġa m
ĠâĢ ĵ
Ġd id
rou gh
if f
o y
at er
rou nd
Ġag ain
u al
Ġd es
Ġw ant
is e
Ġu nder
d ay
Ġ 4
se l
u ll
Ġcon s
Ġn ow
Ġbec ause
ĠâĢ Ķ
m an
l ud
Ġ $
Ġyear s
ter n
ent s
ub lic
e c
Ġe ven
is s
Ġne ed
Ġin v
Ġkn ow
ĠW e
. .
Ġse e
ment s
c ed
Ġad d
t ing
Ġin d
o ld
Ġse c
, "
f ore
u ch
Ġe very
ur n
Ġsu pp
Ġ 5
pe ct
Ġm ake
oc k
ĠU n
Ġthe se
Ġe m
o ll
j ect
Ġwhe re
I n
ation al
ver n
x t
Ġb u
um p
T h
Ġl ook
os s
ĠA nd
Ġd on
Ġe v
at ing
Ġw ay
Ġbe ing
Ġre m
Ġr ight
Ġ [
i ly
ro w
n g
Ġm ay
le ct
Ġthe n
ĠT r
Ġman y
Ġc all
Ġd iff
ie w
Ġre l
Ġde f
on t
ĠB ut
Ġinc lud
as ed
as on
i ed
mer ic
Ġth ink
ak ing
l es
Ġre g
) .
Ġim p
ri b
it ed
at h
Ġth rough
e ll
Ġs y
Ġs ay
Ġsh ould
Ġp res
Ġf l
ur ing
t y
Ġth ose
Ġl ast
ot her
Ġsh ow
Ġ very
Ġm uch
if ic
it ies
ow er
Ġst ate
t le
ĠTh is
he n
Ġb r
s s
at ive
Ġwe ll
ar g
ot h
Ġ2 00
Ġc ount
- -
u nd
ĠW h
Ġp h
Ġo wn
Ġdo es
ar ly
ic s
Ġ end
al s
Ġd own
Ġas s
Ġbe l
Ġu se
ĠA meric
t s
an ge
Ġl ong
ter s
in ce
g r
Ġbe fore
om et
Ġgo vern
w ard
Ġm on
u p
ib le
u es
ĠN ew
Ġst art
Ġre port
Ġ ke
if e
b le
Ġf in
Ġm ade
en er
Ġte am
ol og
) ,
Ġsu ch
i x
re n
âĢ Ķ
ou n
ers on
il ity
is m
Ġwor ld
Ġgo ing
Ġs m
f ul
l p
u ally
c om
e k
ist s
Ġa c
Ġst ud
t ain
Ġgo od
I t
or k
Ġe ff
Ġsu b
it s
Ġs et
Ġagain st
Ġs ur
Ġg u
Ġpo int
Ġg ame
Ġ ent
ar s
st em
g an
y s
Ġ 6
l i
rou p
Ġpro v
Ġst ill
ill ion
Ġwh ile
Ġhe lp
a x
we en
Ġle ad
e f
Ġm in
00 0
im es
al k
m s
Ġs ays
c y
Ġo b
an k
Ġpro du
Ġg r
Ġin ter
Ġs im
Ġst r
Ġin st
sel f
c ess
Ġcon f
Ġc ol
i o
Ġt ake
u res
Ġs ame
Ġc r
Ġth ough
Ġbet ween
Ġoff ic
Ġdiff ere
ut ion
us s
e ver
oll ow
l and
Ġdis c
ar ch
Ġ ed
o ol
a ir
Ġo p
re ad
Ġh igh
Ġs ign
Ġn um
Ġl aw
a h
Ġgovern ment
n er
l ed
ĠR e
w ay
g g
Ġt er
h ip
an y
he s
at ch
c ent
am es
Ġre f
Ġs omet
t ed
t en
Ġtr ans
vel op
W e
Ġm em
Ġin s
Ġs er
iv es
Ġr un
Ġa round
Ġf ound
Ġth ree
a ve
at her
Ġm ed
Ġhe re
ou se
ĠA r
Ġre al
v ed
Ġus ed
Ġex p
o ot
Ġsy stem
a z
c i
ĠY ou
ce pt
Ġre ally
Ġg roup
Ġ1 0
v ing
c on
Ġsupp ort
al e
Ġm od
c er
Ġc our
. [
et s
Ġre t
Ġp ublic
Ġ 7
Ġspe c
Ġh and
ĠL e
in s
p r
y ing
Ġg reat
ĠTr ump
Ġex t
ire ct
Ġf am
t on
ĠI s
Ġc ar
en se
Ġc ur
Ġw om
ĠC om
al th
Ġex per
Ġf act
Ġha pp
ĠThe y
Ġc ap
p h
Ġb oth
Ġf r
Ġre ad
Ġd ay
ĠA l
ic es
in es
ul ar
Ġf ind
Ġre p
Ġl it
ut h
Ġd et
o h
Ġd uring
Ġs l
ĠS h
e red
t he
ĠA s
m in
Ġc re
Ġs erv
Ġmon th
Ġb ig
Ġde velop
Ġp erson
is ion
ĠC l
ak es
Ġf ollow
Ġto ld
Ġis s
Ġs ince
ic ally
ag es
a red
m ed
e x
Ġw ar
i vers
Ġc ent
Ġwe ek
Ġ 8
Ġf ew
ord ing
a j
g et
Ġpol it
v es
Ġle g
Ġex pl
as h
Ġg ener
Ġl ot
Ġbel ie
d er
Ġf il
Ġ 0
at a
ĠS e
Ġre qu
r ic
re nt
Ġto o
an c
i et
iz ed
b ers
Ġcont in
Ġo pp
Ġpro t
W h
Ġ 9
ent ion
n ess
Ġp ut
Ġin f
Ġc le
ĠI f
Ġan other
Ġc or
Ġdiffere nt
Ġres p
ĠD e
ch ool
Ġsomet hing
Ġl oc
Ġs oc
Ġinv est
ut e
2 0
Ġc he
Ġcomm un
ĠF r
Ġpl an
Ġl ife
Ġre le
u c
Ġp ass
o x
i ence
Ġf ar
Ġp ower
n ed
Ġm et
Ġth ings
Ġar t
th ing
Ġhe ad
Ġp oss
ere st
od y
ro ss
ar ge
Ġ '
Ġc amp
Ġv ot
Ġde p
iz e
Ġm ight
Th is
ant s
Ġas k
Ġne xt
Ġe ach
in ess
Ġ .
Ġne ver
v iew
i er
Ġch ild
i k
Ġsec ond
ĠF or
Ġad v
Ġm ark
Ġb us
Ġde m
Ġqu est
Ġcom e
ie ld
ĠâĢ ĺ
ĠA n
t t
Ġg ot
i ent
Ġb est
it al
ĠTh at
Ġop en
Ġall ow
Ġp ost
n ce
Ġse em
u g
r at
s on
Ġfe el
ĠP ro
p le
Ġper cent
ĠU S
gr am
Ġp ri
c l
Ġd irect
Ġh ome
Ġinc re
i red
Ġd ist
or n
l ess
os ed
ĠR ep
Ġcont ro
Ġres ult
Ġh um
Ġc are
Ġcomp le
Ġh ard
Ġin form
Ġim port
Ġinclud ing
ate ly
Ġm illion
Ġpl ace
am a
Ġwith out
Ġa v
con om
Ġ ide
Ġpro ble
ch n
Ġbu ild
g y
Ġnum ber
one y
a im
Ġto p
Ġcount ry
Ġe l
r al
ri end
Ġst and
ĠB l
u ro
re t
ab ly
is hed
Ġg l
Ġf our
Ġpart ic
w ays
c o
Ġm ov
Ġle t
Ġbet ter
r ation
Ġint erest
Ġrec ent
Ġt ri
B ut
l ing
Ġapp ro
Ġlit tle
Ġcall ed
Ġl ess
Ġbe h
Ġt urn
e ad
l ine
Ġb ro
Ġse ason
1 0
Ġm il
is ed
Ġc ase
a pp
r act
Ġre st
_ _
en cy
Ġatt ack
Ġp op
Ġan n
Ġd r
od e
Ġle ft
ĠI nd
Ġf un
Ġ Z
ĠThe re
Ġke ep
er ing
Ġm ove
Ġf ull
in al
Ġdid n
aj or
Ġm ain
in a
m e
b e
Ġeff ect
Ġus ing
at ure
Ġpre v
Ġt est
Ġpro gram
le g
Ġv al
Ġpol ice
Ġe ar
Ġp ay
Ġw rit
t o
Ġfor m
ĠAmeric an
Ġe conom
Ġd ata
Ġch ar
Ġp os
Ġnew s
Ġs it
Ġw in
ain s
in ed
H e
iv ing
read y
Ġsm all
Ġle vel
olog y
Ġl ist
Ġs chool
Ġwom en
u ck
r ap
m it
id ed
Ġpro cess
g er
' re
ir d
re en
Ġe as
Ġch ange
pl oy
Ġp rom
i ans
Ġcur rent
Ġpres ident
Ġh ist
Ġre ce
Ġcomp any
or th
Ġm at
us ed
ĠS o
ru ct
ĠUn ited
Ġd ri
Ġal ready
oh n
ĠO b
Ġu nt
Ġl ater
Ġ =
Ġwh y
Ġt y
Ġm oney
Ġs ol
Ġb ook
Ġb re
Ġal ways
r on
ĠH ow
Ġex pect
w it
Ġoffic ial
Ġbus iness
Ġ Q
st and
Ġte chn
ivers ity
Ġpro ject
a ign
Ġth ing
Ġor gan
Ġinform ation
ĠA d
Ġcl aim
Ġt alk
as es
Ġdes ign
ĠS he
Ġm ajor
ĠP h
Ġb o
Ġcl ass
Ġ- -
Ġpro f
Ġch ang
Ġj ob
le ction
ĠB e
Ġhe alth
iv en
a ff
Ġab le
ur s
Ġst ory
Ġv is
er tain
Ġp ast
he re
ard s
ou th
Ġre se
ĠC an
Ġo per
Ġf ree
pt ion
Ġm ust
Ġc ity
ur al
Ġa way
Ġhapp en
i or
.. .
Ġimport ant
Ġp at
uth or
amp le
ur ity
ur y
Ġk ill
s c
Ġo ld
r ist
end ing
Ġ est
Ġed it
u red
Ġs k
Ġg row
ac y
Ġdoes n
iss ion
Ġle ast
Ġc ost
ĠG o
Ġm en
Ġv ar
Ġd ays
S t
Ġ1 8
ain ed
Ġh op
Ġcon st
Ġte ll
Ġcamp aign
id es
res ident
s ide
Ġst re
id er
Ġc ame
ne y
Ġa ff
o ad
cc ess
er n
el s
Ġt ax
Ġk ind
Ġm aking
Ġl arge
Ġen ough
5 0
Ġfam ily
ĠM ar
Ġ1 2
Ġm ar
ĠS p
Ġf riend
Ġrec ord
Ġpol ic
Ġv iew
r or
er al
ion al
at or
Ġe lect
us h
iv ed
le y
Ġunt il
al ity
pp ed
A s
is ing
b y
if ied
Ġde al
Ġv ide
Ġpolit ical
âĢ ¦
ri es
-- --
al f
au gh
Ġwork ing
Ġto ok
e e
u ed
1 9
Ġf ore
Ġ ve
Ġa ir
b s
ĠRep ublic
I f
are nt
Ġin tern
Ġde b
is ter
ĠS c
ĠJ ohn
Ġ es
an e
ain ing
Ġl ine
i ol
Ġme an
oc rat
Ġact ually
Ġbec ome
w ork
Ġf und
ot t
w are
Ġfor mer
on y
em ber
Ġof ten
ap s
Ġhum an
ĠE uro
Ġw on
Ġg ive
ĠP l
an n
Ġacc ording
m ost
Ġe ver
w h
Ġret urn
ar ing
1 1
is on
Ġwor d
Ġor der
en g
y ear
o int
ĠR uss
Ġn ame
Ġb it
Ġb as
Ġt imes
iz ation
Ġse ver
g in
ĠD em
Ġp ar
Ġde v
ic le
Ġg ames
Ġn ight
i qu
ĠS y
Ġ19 9
ut ure
Ġchar ac
ĠA ll
it her
Ġper form
ra ft
ĠO r
Ġs ing
f or
Ġf ac
ĠM ay
Ġmark et
ĠM c
id d
Ġw r
ĠA t
Ġr a
m ber
ro p
ĠC on
The re
E R
Ġl a
Ġdo ing
c hed
Ġapp ear
Ġle ar
ak en
at s
Ġe arly
Ġev ent
ĠP resident
Ġha ving
Ġse en
Ġto day
Ġsoc ial
Ġplay ers
Ġsever al
Ġc rit
id ence
Ġme et
Ġchild ren
ĠY ork
Ġ1 5
and s
Ġmed ia
art ment
Ġwhe ther
ot s
Ġw ent
Ġp ress
Ġsu re
or ies
Ġmem bers
Ġyou ng
b r
Ġcontro l
ious ly
en e
Ġpro p
Ġf ive
Ġo cc
Ġe qu
un e
Ġw ater
Ġmil it
i um
Ġen g
i ver
Ġquest ion
Ġp ot
Ġlike ly
Ġ vers
s h
Ġc ertain
ĠM r
Ġsh ort
en n
Ġex ample
Ġar g
ĠSt ates
Ġinv ol
/ /
l f
Ġd one
Ġsu ccess
end ed
ver t
ĠEuro pe
Ġal ong
Ġdes c
ĠOb ama
Ġmonth s
A nd
Ġs ide
Ġh our
Ġ ]
i ally
ĠC ol
ent ial
b all
Ġan t
ag ue
Ġse x
em pt
le t
ĠB r
Ġwith in
ub l
Ġcour se
n ect
ur ch
u ff
st er
Ġ ,
Ġon ce
ul ation
ĠO n
1 2
Ġf ight
Ġunder stand
Ġact iv
Ġam ong
im ate
Ġinvest ig
re w
Ġposs ible
it ing
Ġcon cer
Ġch o
Ġf uture
on es
ort un
Ġa uthor
it ive
Ġthough t
gg est
Ġproble m
Ġprodu ct
Ġme ans
ail able
Ġv iol
m y
Ġpri v
Ġkn own
Ġn on
oc i
âĢ ĵ
Ġcommun ity
iv id
Ġac ross
Ġh old
ĠW hen
al d
g ress
our n
Ġloc al
in c
Ġy et
Ġf ail
Ġ &
Ġprot ect
ĠC ar
p or
Ġor ig
Ġre ason
l er
ĠN o
Ġsu ggest
Ġ1 1
Ġm us
or ld
i ber
n ot
b ook
Ġask ed
Ġg iven
Ġm akes
ed eral
Ġ201 6
ag ed
ĠSt ate
b ack
ver age
Ġother s
Y ou
Ġstr ong
Ġreport ed
Ġ i
Ġvide o
ĠT e
o ber
Ġpro b
Ġb en
Ġbelie ve
an ces
Ġget ting
ĠH ouse
ens ive
Ġ ident
Ġc a
iet y
Ġann oun
ore d
Ġl im
ĠUn iversity
Ġ3 0
Ġl ight
Ġs ent
Ġc ut
ir on
Ġcon d
it ions
ĠCh rist
ur ther
3 0
Ġn et
as hing
ĠC o
Ġs our
am s
re st
Ġn ational
' ve
am ent
Ġde ath
. ,
Ġc reat
Ġcl ose
Ġind ust
F or
Ġ X
Ġl and
Ġstart ed
as ter
u se
Ġav ailable
Ġl ove
ĠDem ocrat
Ġb at
Ġb ased
ĠC ent
Ġsa f
Ġl ow
res ent
Ġh ig
m ing
Ġacc ount
Ġhist ory
Ġ #
Ġfollow ing
ut es
o f
Ġiss ue
Ġm om
ĠM in
Ġag o
ab ility
sel ves
ra el
Ġ201 5
ort s
ĠA m
A T
Ġcom es
Ġem ploy
u ment
Ġser ies
Ġide a
Ġal most
in ation
e b
Ġpart y
Ġtr ying
ĠAmeric a
get her
u ly
Ġto gether
re ed
il ar
Ġacc ess
p ro
Ġf oc
her s
ĠF l
ie f
Ġcomm it
ition al
Ġtr ad
Ġ1 6
r ing
Ġpr act
er man
Ġis n
th ough
ail s
ĠWh at
ere nce
Ġimp ro
Ġcle ar
Ġadd ed
a f
ĠO ne
Ġr ul
ĠS en
Ġexper ience
1 5
g ed
ust om
Ġh alf
r ict
a i
int on
Ġl ive
ĠB ro
ivid ual
min ist
ra w
Ġf av
Ġany thing
Ġan al
Ġh it
un ch
Ġs ix
ot e
wit ter
og rap
Ġlook ing
I N
Ġare a
ĠCom m
Ġsay ing
ĠE x
Ġcomple te
Ġm iss
ĠCan ad
Ġpres ent
Ġ201 4
Ġb ill
a id
Ġr is
er t
at ors
ci ally
ru g
Ġv ict
u ge
ĠP r
Ġcour t
Ġt aken
Ġb ad
Ġm or
Ġfil m
n es
i en
ĠE ng
ow s
Ġa ut
ĠW ar
Ġ er
Ġbeh ind
ot o
Ġcomp et
e v
Ġne ar
Ġsec urity
Ġent ire
os p
ĠT o
Ġtr y
Ġpro per
Ġm ult
pl ay
Ġmilit ary
ĠP ol
Ġt re
Ġ z
Ġf ace
Ġdisc uss
ward s
ĠD on
* *
Wh at
Ġr ather
Ġto t
Ġind ividual
' m
Ġm ind
Ġsing le
s y
at ic
Ġth reat
Ġstud y
Ġp ubl
Ġwant ed
am ed
ĠM an
ĠA f
Ġpolic y
ap er
Ġ1 4
ir c
Ġf ood
p ar
ĠIs rael
Ġf all
al es
Ġm ess
ĠB rit
Ġsome one
Ġbl ack
ar m
id s
ĠS ec
Ġqu ick
ĠN orth
tt p
o ff
ll ing
Ġspec ial
Ġc ult
r is
Ġs um
Ġcom b
O n
Ġre du
Ġ /
le ment
Ġcomp an
Ġbr ing
Ġ Â
W hen
p ly
ol ution
ĠD ep
Ġf oot
A n
Ġplay er
Ġatt empt
O N
Ġt aking
ĠN ational
d d
Ġke y
el t
ĠG r
Ġ1 7
if y
ic ult
Ġ1 3
Ġel se
. )
ĠC al
ro te
v iron
ĠB ar
Ġb ody
ashing ton
ĠW orld
Ġ :
Ġnot hing
ĠI m
Ġcon nect
o ver
Ġfr ont
Ġc ou
Ġsp ace
ĠCl inton
Ġcom ing
1 6
Ġprob ably
ĠC ity
Ġs w
Ġhow ever
Ġsim ilar
Ġpre t
Ġdesc rib
c ing
I S
Ġrese arch
Ġj o
Ġ |
c hes
R E
Ġben ef
re me
y n
g o
ĠH ar
Ġex ist
Ġsign ific
Ġm ass
Ġpoint s
li er
a ult
ac es
ĠA ust
: //
Ġdec ision
Ġcon v
Ġs us
Ġright s
ĠS u
w w
ull y
S o
Ġen c
Th at
m b
Ġc oun
Ġe ither
Ġfe at
Ġt arg
Ġh ouse
1 4
Ġb an
ro du
ir l
Ġw rote
as ing
Ġch all
an a
Ġim m
s w
un g
Ġserv ice
Ġd oc
Ġf urther
Ġth ird
Ġf ire
Ġcre ate
Ġiss ues
Ġf ig
Ġcom pl
ive ly
Ġre pl
Ġbe gin
Ġrel ations
Ġw a
Ġwho le
ri ed
Ġsu per
Ġ201 3
a pe
r an
A N
ĠW ith
Ġst op
Ġst ep
Ġf ield
Ġc and
Ġevery thing
Ġex ec
ĠA pp
pp ing
ent ly
ĠJ an
a ul
Ġf ederal
n ow
pe cially
Ġtr a
Ġro om
Ã ©
Ġseem s
ĠG e
ĠG u
Ġcompan ies
Ġse lf
ĠW ashington
p ite
1 3
Ġinf l
Ġme as
Ġd ue
Ġrele ased
Ġw atch
u ation
Ġro le
il t
Ġp ick
Ġst ates
ĠHow ever
C h
ib ility
Ġst ri
at t
Ġc ustom
Ġbe gan
Ġofficial s
Ġs ound
Ġd am
id ay
Ġe y
Ġl ab
am er
iv il
Ġlead ers
ĠD av
Ġcharac ter
ĠS outh
Ġstud ents
Ġen er
se c
Ġmat ter
o on
he ad
er y
e al
Ġpos ition
Ġt reat
ad es
ob al
Ġo pt
i od
Ġhim self
Ġstate ment
Ġout side
l im
Ġdevelop ment
Ġfin al
ĠIn st
Ġin it
Ġ201 2
Ġ19 8
l ike
Ġst at
Ġbec ame
Ġprov ide
Ġd ou
end er
viron ment
Ġrep resent
Ġhour s
Ġit self
Ġam ount
Ġbre ak
Ġoff ice
ĠIn tern
Ġgener al
ĠP art
Ġcontin ue
Ġab ove
Ġcount ries
Ġ201 7
Ġthem selves
Ġspec ific
Ġa ction
ac ed
Ġ2 5
Ġadd ress
re g
og le
Ġl arg
l ish
Ġg un
Ġne g
Ġinter view
Ġtr ue
Ġ1 00
as k
Ġwas n
Ġsignific ant
ĠA ss
Ġsim ply
Ġg round
og n
Ġ )
ace book
um b
ograp h
' ll
ang u
ĠG erman
Ġev idence
Ġad minist
Ġb ar
Ġd i
Ġvers ion
ĠJ ust
Ġdiff icult
Ġprof ess
Ġag ree
ĠE d
re am
ĠR es
il i
Ġrun ning
Ġgroup s
Ġbuild ing
Ġd om
B C
Ġr ad
e ks
Ġt em
Ġty p
o id
ĠM ed
1 7
ar ter
ĠCh ina
idd le
Ġc op
Ġwom an
Ġneed ed
Ġd rug
Ġmus ic
Ġshow s
Ġneed s
Ġcomm on
Ġevery one
Ġrele ase
Ġd est
Ġin j
Ġl at
if t
Ġde ep
Ġsa w
l ight
Ġb all
Ġex c
r ight
Ġresp ons
ourn al
Ġinclud e
Ġbel ow
l am
rib ut
Ġindust ry
Ġm ag
Ġener gy
Ġpret ty
ĠH is
Ġm ot
Ġwh ite
y le
Ġg en
Ġcand id
1 8
Ġplay ed
Ġqu ite
Ġa p
Ġph ys
A R
ĠA fter
ĠW est
Ġfriend s
b ody
Ġl ate
iv al
ĠA b
at ur
is c
Ġb illion
Ġs ense
Ġplay ing
Ġch arg
Ġal leg
Ġleg al
H ow
Ġl ost
Ġh om
A S
Ġ5 0
Ġes pecially
w here
Ġp le
Ġab s
__ __
Ġval ue
Ġinst ead
ĠM us
Ġre d
t ime
Ġh ost
Ġob ject
cc ording
ep end
ag er
or ing
Ġper iod
os ing
Ġchang es
ĠNew s
Ġe lection
le v
Ġan im
Ġrecent ly
Ġ {
Ġsu ff
om m
ir t
ist ic
Ġwe eks
Ġj ud
Ġs ite
b o
l t
Ġfor ward
Ġtr ack
ĠN ot
iqu e
Ġl o
h od
ĠWh ite
ĠT witter
med i
Ġvot e
ac hed
Ġdet er
Ġp ain
ĠO ct
Ġlong er
ĠC ong
Ġopp ortun
e ed
Ġac cept
o e
ar c
Ġhop e
o ke
Ġbl ock
Ġmom ent
Ġeconom ic
ĠW ill
Ġso on
Ġe p
Ġdec l
ir m
Ġsh oot
ri pt
op h
Ġt it
ĠM y
ĠDep artment
Ġp ie
i j
Ġc red
Ġrel ig
anc ial
du ct
Ġc irc
Ġwr ong
Ġsh are
n s
Ġwor ks
n ers
Ġon line
Ġhig her
c ial
Ġwe bs
ĠM arch
Ġcons ider
Ġpot ential
Ġcons um
Ġfoc us
Ġche ck
le ar
o le
Ġed uc
ke y
al t
ic ro
Ġhe ld
ove red
ĠSe pt
ĠD r
ul arly
Ġ2 4
Ġword s
Ġp red
id ing
Ġc ode
Ġmin utes
2 5
Ġfun ction
on se
Ġl ed
Ġw alk
Ġserv ices
le ge
Ġc e
Ġst ay
Ġapp lic
Ġre v
Ġst ru
Ġresult s
ĠThe se
Ġre ve
The y
ĠJ une
Ġw ind
Ġp arent
Ġlaw s
c il
ĠRepublic an
u ary
ĠA ug
ĠSy ri
Ġa ud
ur d
ĠM e
a ut
Ġso ld
il ities
Ġany one
Ġfav or
Ġtot al
Ġart icle
i ents
Ġa ge
Ġpr im
p ut
Â Ń
Ġ <
f ect
A d
ate g
Ġris k
Ġcomp ut
ĠM ich
A l
as ons
Ġperson al
f er
Ġre view
Ġcont ract
ĠP e
it ution
Ġup d
v al
E S
u le
h am
ang er
h aps
Ġv ol
Ġtarg et
Ġpop ular
Ġan sw
Ġexp ress
= =
ap an
pr il
r ay
Ġd en
Ġh y
Ġne cess
Ġ201 1
Ġear lier
ag ing
Ġgo al
ĠD o
Ġproble ms
Ġr ate
Ġres pect
Ġde ad
P h
u el
Ġrece ived
c he
end s
Ġp ort
Ġen vironment
ĠP ar
Ġcre ated
ĠSt e
Ġexpect ed
te e
Ġb ase
Ġtechn ology
Ġincre ase
Ġw ays
re et
Ġl angu
ĠCong ress
Ġ +
ud e
Ġcom ment
Ġsc ient
Ġsur pr
ip le
ĠG od
ĠJ uly
is l
b it
Ġant i
Ġpriv ate
Ġp ack
Ġfor ce
act ion
Ġsh ot
ĠS m
Ġquest ions
Ġcan not
Ġannoun ced
her n
av ing
ĠF acebook
Ġspe ak
Ġp ur
Ġeas y
ĠM ond
Ġter ror
on st
Ġimp act
at ives
et er
n a
Ġinvol ved
ater ial
h ood
pl es
Ġd iv
ct or
ill s
le x
Ġexec ut
ĠE n
ĠAust ral
Ġe t
it iz
Ġs en
Ġne arly
re m
Ġ19 7
our t
Ġex act
Ġrelations hip
ĠGo ogle
6 0
i res
Ġcont ent
Ġmod el
ok es
om b
Ġc ivil
e es
ues day
Ġst aff
ĠFr iday
e ch
ell ig
Ġorig inal
Ġle ave
Ġc ases
Ġty pe
Ġcap t
c ast
Ġins ide
Ġintern ational
Ġ201 0
ĠA pril
T o
re l
ĠP al
at ural
Ġc ell
Ġco ll
Ġbro ad
Ġwork ed
Ġar rest
Ġf ans
Ġreport s
Ġph ot
Ġkill ed
Ġcl ub
b or
ll ed
E N
A t
Ġa verage
Ġl iving
ĠN e
Ġso ft
Ġbec om
ĠR ed
Ġc al
Ġresp onse
Ġhe art
ĠMond ay
g ing
ĠAmeric ans
Ġresp ond
Ġ ur
Ġus ers
Ġn ation
Ġch ance
Ġim medi
Ġsub ject
Ġest ab
ĠE m
k y
O R
Ġwor th
Ġt akes
ĠC ount
he l
Ġob s
j oy
ip s
ĠA ct
est s
rough t
Ġdirect or
Ġgl obal
ĠT uesday
a el
Ġter ms
Ġass oci
ĠJ apan
Ġcol lect
is es
ĠP er
op s
Ġsour ce
Ġde l
Ġpr ice
it es
Ġfin ancial
ove mber
ã ģ
r ain
olog ical
Ġ @
Ġab ility
Ġm other
Ġdef in
iz ing
ĠRuss ia
Ġwork ers
Ġpubl ished
Ġst ore
" .
os ition
ĠWh ile
Ġdec ided
Ġm id
Ġro ad
Ġe mer
Ġg ave
m on
Ġs qu
Ġhappen ed
Ġinfl u
Ġt ou
ĠW ed
Ġbu y
Ġwe ap
ĠS ome
Ġph one
ĠN ow
Ġl ack
un t
Ġo il
ĠCal if
Ġfore ign
Ġ4 0
vert ise
Ġrequ ire
Ġmem ber
Ġcap ital
cl us
ov ed
ro wn
Ġl ives
Ġwho se
Ġl og
ĠO ff
Ġg irl
Ġcurrent ly
Ġaff ect
Ġind ic
in o
ĠGe or
Ġf em
b ased
re ct
ough t
Ġmet hod
ĠJan uary
" ,
Ġt al
Ġgo es
Ġsit uation
Ġoff er
Ġmeet ing
ru ction
Ġnet work
ĠF eb
ĠS an
Ġpartic ip
ĠS und
Ġpl ans
Ġb ank
Ġar ri
Ġm aterial
Ġc y
l oad
ou d
ĠB y
Ġturn ed
urs day
Ġp ict
O ne
ĠH ill
4 0
ap t
Ġrec ogn
nes day
Ġteam s
f ully
Ġint rodu
l in
ĠA g
Ġreg ard
Ġsim ple
es e
Ġn orm
Ġp age
ĠN ovember
ord er
Ġev ents
Ġh uge
a ur
Ġ ill
Ġperform ance
ĠC or
Ġare as
Ġadminist ration
Ġf elt
ĠSept ember
ĠAf ric
Ġcou ple
Ġappro ach
ĠT V
---- ----
et y
Ġcare er
Ġor d
Ġde li
ĠIs lam
ĠG l
Ġh on
Ġm is
Ġto ol
b l
Ġem ail
Ġvict im
um e
o or
Ġv ia
im ent
Ġimpro ve
Ġf re
Ġquick ly
ruct ure
Ġ2 1
ĠP aul
Ġp ull
Ġeng ine
ĠDav id
Ġnum bers
Ġf ather
ĠEurope an
Ġbu ilt
av y
Ġr ace
ĠWed nesday
ch ie
Ġr ound
ĠTh ursday
Ġd ig
a ily
Ġp ers
orn ia
ĠA ng
ĠC ourt
en ed
Ġhe ard
Ġwebs ite
Ġm atch
Ġth ous
Ġsec ret
Ġto wn
âĢĿ .
Ġl oss
Ġsp ent
Ġh ttp
Ġb oy
ce mber
) ;
Ġeconom y
Ġne igh
Ġte xt
ĠS ch
Ġwant s
Ġre pe
Ġl ower
Ġen joy
us es
Ġ2 2
ĠAug ust
Ġprodu ction
Ġw ide
Ġco ver
ĠOct ober
A L
ist an
Ġpo ll
Ġinclud ed
ight s
ct ions
Ġhand s
] [
W ith
Ġtra vel
ict ion
f ace
Ġkn ew
Ġtr ade
Ġleg isl
Ġallow ed
Ġst e
S h
ĠCanad a
at ory
9 9
Ġreve al
Ġbeh av
d own
Ġvis it
Ġtri ed
Ġse par
or ters
en ces
ĠE l
Ġbo ard
Ġc ause
Ġb i
Ġget s
z e
? âĢĿ
ĠSund ay
es tern
Ġf ear
g est
Ġatt ention
ĠBrit ish
is hing
A fter
Ġper fect
Ġv o
ess ion
g round
Ġve h
Ġgrow th
an ks
Ġpartic ular
c le
2 00
Ġ }
Ġfor ces
Ġmove ment
Ġb rought
for ce
ib ly
Ġen s
Ġlook s
u k
h old
Ġre ach
Ġs ize
age ment
ĠU K
ĠK ore
Ġl ink
ar ily
en ing
R e
ce ed
Ġvar ious
ĠCalif ornia
Ġb ud
ide red
ĠRuss ian
Ġs ong
i am
ĠS w
ur ning
ident s
Ġpop ulation
all ed
Ġr ac
ĠQ u
' d
A C
Ġprev ious
m a
ĠDe cember
Ġcont act
ĠI S
Ġm ention
ak er
c ies
und red
Ġmor ning
Ġf air
Ġrul es
ĠP ost
Ġfe ll
Ġdem and
Ġpro gress
se qu
y ond
Ġl iber
s et
Wh ile
Ġ2 3
c ome
Ġh ot
f ield
Ġtr aining
ĠH er
ĠC ont
ra z
Ġh or
f l
Ġlead er
led ge
Ġc itiz
om p
Ġind epend
2 4
ellig ence
o o
in ks
ec ause
E D
U S
Ġim age
ĠT imes
Ġ ess
ra q
Ġlat est
ĠSt reet
ĠBl ack
ĠP at
u ments
ĠJ ew
ific ation
ar th
Ġlangu age
I T
Ġcons idered
Ġtalk ing
ond on
Ġpre p
Ġstru gg
Ġse arch
Ġmed ical
Ġst ar
d e
i ant
Ġco ach
Ġup on
ap h
T r
Ġfeat ures
v ent
g es
Ġadd ition
ĠP ark
Ġspe ed
Ġf ast
Ġw ond
O S
Ġex am
ĠPart y
b ed
ar ies
ic les
h a
Ġu nd
Ġ200 8
im ately
ĠK ing
Ġinvestig ation
Ġdo ll
ĠCent er
ĠSen ate
Ġsystem s
Ġs ort
p ir
Ġre b
sy ch
atur day
et h
Ġsl ow
Ġcon duct
Ġa chie
Ġcrit ic
il le
Ġb ox
im in
Ġm ach
I C
Ġlevel s
p s
ĠI ran
Ġp aper
op e
u it
Ġs n
e ared
Ġ â
ys is
Ġwrit ten
w o
Ġcons erv
8 0
Ġpri or
Ġd raw
ĠInd ia
Ġ200 9
id ge
ĠCount y
Ġhe ar
he t
k ing
Ġp en
Ġprev ent
u f
as c
Ġincre asing
ĠI raq
ig r
Ġext reme
ru ary
Ġsex ual
Ġs on
Ġdoc ument
Ġjob s
Ġsp okes
ĠM ark
t r
Ġs ens
ĠMus lim
an i
Ġparent s
Ġsc reen
Ġse ven
Ġsaf e
Ġc ard
reed om
Ġeff ort
at form
Ġlear n
ro om
Ġser ious
Ġreg ul
ĠT ex
Ġin n
et t
Ġcomplete ly
it ch
r ast
ĠDon ald
in ing
ic o
e xt
Ġsur ve
Ġr ange
Ġe ight
Ġclaim s
Ġinterest ing
Ġsoc iety
ĠR om
Ġmajor ity
Ġdou b
e ff
Ġviol ence
Ġmess age
Ġcon c
ren ch
O P
vertise ment
Ġrequ ired
Ġattack s
ĠCh ar
Ġdes pite
an ced
Ġpartic ularly
Ġob v
S he
Ġopportun ity
ĠL ondon
our ces
un k
Ġn atural
Ġext ra
Ġansw er
Ġexper ien
Ġgu y
am ing
2 2
uc lear
ĠK e
Ġoffic ers
Ġp aid
Ġsc ience
ens ion
m p
Ġj ournal
ab or
Ġbig gest
Ġc ross
Ġmod ern
ines e
Ġexact ly
ill ed
ĠE ast
ib r
Ġcar ry
er ve
A M
in ally
ent ially
ĠM ore
Ġh undred
Ġd ro
Ġcl imate
Ġex cept
os es
Ġmov ie
Ġare n
Ġst ories
ĠN et
n y
Ġpract ice
ly ing
pp er
n ces
u x
Ġrem ain
Ġsur v
ar i
Ġm iddle
Ġcertain ly
is ions
ĠS aturday
Ġdef ense
Ġdescrib ed
ad d
Ġg as
Ġproduct s
Ġsomet imes
Ġcon vers
Ġl ay
Ġcommun ic
i ers
Ġter m
Ġpr ison
Ġlook ed
ut ions
Ġst uff
Ġ ...
h ib
Ġshow ed
osp ital
Ġa w
av es
Ġu lt
Ġus er
ous ly
Ġ2 7
ĠFeb ruary
Ġhist or
Ġqu arter
Ġr out
Ġfin ally
Ġocc ur
ĠS and
Ġim ag
Ġcost s
u ing
Ġlead ing
Ġbl ood
ĠI nt
ĠC he
Ġchang ed
Ġon es
Ġqu ality
Ġn amed
Ġsum mer
Ġdet ails
Ġrem ains
Ġt able
ak ers
augh t
ĠS pe
Ġp ath
Ġp an
Ġ *
Ġg iving
ĠS oc
ĠT H
Ġstart ing
F L
Ġeduc ation
Ġprov ided
en ge
Ġpo or
er c
Ġreg ion
Ġd anger
co in
id a
Ġwrit ing
ar r
Ġch ief
Ġdem onst
in ary
Ġdam age
Ġthink ing
Ġcom ments
Ġmult iple
Ġm ob
Ġcontin ued
ĠMc C
Ġpur p
ic ks
Ġf it
Ġpart s
Ġgrow ing
Ġmain tain
ĠT ur
Ġm ent
Ġd ied
ĠG ener
Ġ >
Ġp urch
ĠDemocrat ic
ĠM or
ĠRepublic ans
y l
Ġf ix
2 3
ĠLe ague
N o
Ġass ist
Ġrequ est
im inal
p re
ĠE ven
Ġread ing
Ġwould n
Ġm ill
mit ted
b an
Ġcult ure
Ġwr ite
z z
Ġeff orts
Ġcall s
Ġh ous
op er
Ġread y
Ġincre ased
f ort
em s
ĠC oun
ag o
Ġimp lement
Ġsp ot
Ġce le
Ġeffect s
ĠB ill
Ġper haps
Ġvot ers
Ġ2 6
Ġ2 8
ab les
ar ian
Ġal though
Ġfoot ball
Ġdirect ly
ou l
I m
Ġstand ard
Ġreal ity
Ġcomple x
ĠF irst
ic ated
Ġspe ech
Ġgu ys
us ing
al y
ĠCh inese
Ġk ids
ĠD es
Ġus ually
Ġal one
Ġav oid
Ġto wards
Ġbe yond
B I
Ġ ver
Ġcons ist
Ġpl atform
Ġcent er
row d
Ġinclud es
Ġc amer
s p
Ġstud ent
Ġf ile
ar a
Ġcould n
Ġt ro
it ute
Ġcho ice
Ġsc ene
ĠB o
Ġse lect
ur g
an ch
e gr
Ġthrough out
Ġchall eng
Ġsub st
Ġimmedi ately
ĠMich ael
Ġun f
ĠJ ames
ĠTex as
Ġrec omm
Ġro b
ĠJ ack
ĠApp le
Ġcon cept
Ġadd itional
Ġrem ember
Ġcl os
Ġbr ain
ĠS er
il es
Ġdesign ed
Ġc at
ag on
Ġw ife
ĠC ons
it or
Ġ( @
st on
w ise
Ġag ency
ur t
Ġs le
Ġsoft ware
Ġrese arc
f ord
ic ient
Ġ il
A ll
Ġto ward
Ġt en
Ġg one
Ġdeb ate
Ġsaf ety
Ġcor por
im um
ru pt
ĠâĢ ¦
am b
Ġbl og
ĠInd ian
Ġep is
Ġmov ed
ĠMin ister
ir th
Ġfig ure
Ġrel ative
he st
Ġop in
Ġoffic er
Ġlet ter
ac hes
ast ic
om en
ate ver
Ġdo g
Ġst age
Ġpress ure
Ġpie ce
ress ion
Ġpass ed
ĠM on
Ġc ast
il ies
Ġrece ive
m en
amp ions
ber g
N ow
Ġ6 0
Ġo ption
Ġthous ands
ĠG reen
ĠI I
Ġcoun ter
Ġs il
Ġs we
Ġa head
Ġbat tle
Ġpre c
Ġ ut
O T
n ew
air s
Ġmean ing
Ġproper ty
Ġla unch
ro y
ad em
Ġdis app
Ġdri ve
ĠSu per
it ation
ĠS erv
Ġcr is
Ġcle an
o es
Ġsus pect
ol ute
Ġn om
Ġalleg ed
Ġappear s
Ġse ll
Ġsc ore
port s
Ġd ark
Ġhelp ed
ĠThe n
Ġro ck
ĠAss oci
Ġn uclear
Ġd ate
Ġcond itions
w ood
j ust
Ġs at
Ġcharac ters
Ġ ign
Ġre asons
Ġn ature
Ġorgan ization
ĠR ich
ĠDemocrat s
Ġde g
ĠS im
Ġbud get
Ġcomput er
Ġt our
Ġbegin ning
2 7
le ase
Ġdiffere nce
augh ter
ri ef
Ġf an
ĠPl ay
Ġmov ing
Ġdev ice
Ġenc our
Ġcent ury
A D
Ġfail ed
Ġmy self
ĠEng lish
Ġtw e
? "
Ġref er
ĠSt ar
m ore
Ġp ark
Ġa im
Ġtou ch
Ġbook s
Ġmay be
Ġtit le
Ġ x
Ġhapp y
Ġcomp ared
ĠM art
.. ..
ch an
Ġcomm and
ĠR ober
ci ent
Ġsh own
ock ed
y an
Ġcop y
Ġest im
ĠF rench
Ġle ague
iv ity
Ġb and
! !
Ġw all
Ġtr ust
Ġst ra
Ġcandid ate
ĠT or
Ġsc he
Ġsp ending
A P
et ro
Ġb al
Ġey es
Ġconf erence
Ġcont ribut
4 5
Ġpos itive
Ġnecess ary
Ġcitiz ens
Ġpresident ial
ĠH ere
Ġevent ually
ven ue
Ġco ol
Ġpower ful
Ġcol lege
ĠV al
Ġschool s
ig ration
Ġanal ysis
or ks
Ġlim ited
ent y
Ġ19 6
Ġar ch
Ġdis p
ĠB en
Ġnot e
3 5
Ġexecut ive
Ġcor rect
Ġlarg est
or ney
Ġme ant
M y
Ġfollow ed
ĠSyri a
Ġy es
E C
Ġc rowd
Ġs al
Ġm ix
Ġfe ed
Ġfor ced
our ce
uf act
ĠD ay
Ġfe ature
Ġa ware
ain t
Ġh ar
Ġtreat ment
ĠA ir
Ġrelig ious
a ud
Ġf irm
ress ed
N ew
Ġallow s
Ġstre ng
Ġconf ir
Ġaut om
2 6
Ġb ott
Ġfam ilies
ĠÂ £
a res
ĠO f
I s
Ġil leg
B e
k en
Ġth row
b and
Ġapp eared
Ġeas ily
Ġes c
er o
Ġyour self
Ġp us
ĠW ind
I D
en cies
c raft
Ġact ions
Ġgr ad
Ġg ives
B y
Ġphys ical
Ġ2 9
Ad vertisement
Ġfre qu
ĠD is
ir ing
Ġdet ail
ĠB el
ĠGo vern
Ġpolit ics
Ġan g
r ated
Ġcent ral
c ul
Ġinc ome
Ġdec ades
ub e
Ġsen ior
Ġsus p
Ġide as
Ġcred it
Ġd raft
ĠB re
in y
Ġsm art
Ġun ique
Ġover all
Ġsign ed
ĠM ex
b um
Ġcr ime
Ġprom ot
Ġint elligence
ĠC ap
Ġanal y
in n
Ġcris is
I A
Ġus es
Ġdis play
ĠGerman y
ĠIntern ational
Ġdis e
Ġr ap
Ġbenef its
Ġdevelop ed
A ccording
bo ard
Ġn ice
Ġch arge
i able
Ġweap ons
Ġl if
n own
Ġm ist
ĠJ er
ite ly
ri age
ur ance
Ġdo or
ĠAr ab
D on
ĠE U
Ġtr uth
Ġr ule
n et
ĠS chool
Ġal tern
ut y
Ġindividual s
Ġnot ed
ĠAustral ia
Ġconf lic
ĠAng el
Ġr ates
E T
Ġpred ict
A r
res h
Ġcustom ers
ĠPol ice
Ġgo als
Ġfull y
Ġs ales
Ġchall enge
Ġp sych
p art
Ġapp arent
2 8
Ġproject s
O M
ch ange
Ġcontin ues
on ents
m ar
Ġd rop
Ġre form
) :
ĠE arth
Ġprev iously
Ġlarg er
Ġ Ð
ĠGeor ge
2 1
erv ed
Ġbe aut
Ġrel ated
b ox
Ġadv ant
ĠUn ion
s er
Ġre ached
Ġman ager
Ġseem ed
Ġcr iminal
ot i
2 9
Ġst o
Ġbro ther
Ġinc ident
P ro
Ġl ic
Ġstra ight
Ġsp ir
ĠFr anc
ow ers
Ġprim ary
Ġsuccess ful
S ome
id ers
i ance
Ġfavor ite
Ġpe ace
ĠChrist ian
sec ut
Ġem b
ĠT om
Ġexp and
or ter
Ġl ines
b on
Ġsp read
Ġcle arly
ĠCom p
ĠCoun cil
Ġprogram s
Ġhigh ly
ĠH igh
Ġmin or
ol ic
Ġatt ract
Ġmeas ure
ate gy
wh ile
ĠH am
ĠIntern et
at tle
in ated
Ġknow ledge
Ġsa ve
Ġgreat er
ound s
ant ly
Ġtr aff
ĠC r
se y
ĠSm ith
Ġem ot
Ġke pt
U n
Ġr are
ic it
qu e
ĠA nt
us ion
ĠU p
ĠR ec
e an
d om
os h
ĠB er
Ġpl aces
Ġr ise
ĠM ac
Ġres ources
Ġwe b
k i
Ġreg ular
Ġstud ies
ĠBro wn
ĠFl or
Ġvo ice
ĠGener al
ot a
oc ks
Ġar m
ic ed
Ġ200 7
Ġactiv ity
ve re
1 00
od ay
ĠD ef
Ġshoot ing
Ġsour ces
ter m
w ide
Ġpre m
Ġf ine
Ġown ers
Ġfe et
Ġknow s
Ġc ities
Ġfight ing
r s
ĠL a
Ġs end
Ġnorm al
Ġorgan iz
Ġman ufact
Ġcall ing
ic ago
Ġstat us
v ille
Ġlit er
Ġca used
Ġsp end
lev ision
Ġclaim ed
ad o
m iss
Ġla un
Ġint egr
Ġopt ions
7 0
il ed
Ġcol or
ww w
ro ll
Ġpolic ies
it ness
E O
Ġref lect
IN G
on ent
ol es
Ġsh ut
ĠEng land
. âĢĻ
Ġha ven
ĠE very
eng th
ĠR ob
Ġadd ing
or g
ing er
N ot
Ġp un
ĠF rom
Ġresearc hers
m ission
Ġpr int
if ying
Ġpro s
Ġen em
Ġfem ale
Ġv irt
a ith
Ġend ed
Ġpat ients
ĠG old
mit tee
ĠSc ott
Ġpl ant
Ġpr ices
Ġf reedom
Ġgr and
iver se
Ġe le
Ġtr ou
rib ution
Ġh ospital
Ġtrad itional
Ġn ames
Ġra ised
Ġgo ld
Ġconcer ns
Ġbas ic
Ġsupp osed
Ġhapp ens
Ġfund ing
Ġbe at
Ġemploy ees
Ġcharg es
Ġal bum
Ġst yle
Ġsc en
Ġauthor ities
Ġwill ing
ro id
Ġac qu
âĢĿ ,
m ark
3 3
Ġabs olute
Ġsl ight
Ġmin ister
Ġ Ã
y a
al se
Ġe th
Ġcom mer
ĠB ay
Ġact ual
Ġj ump
se e
ic a
Ġb irth
Ġcreat ing
ĠM o
Ġl ik
Ġwa it
Ġim pl
Ġbehav ior
Ġle aving
um an
Ġbe g
lic k
ro l
Ġagree ment
ĠA P
Ġsee ing
E L
Ġme chan
u ana
Ġg reen
Ġst ation
ĠM ost
g en
ab y
on a
S c
ĠWe ll
Ġoff ered
H ere
Ġad op
S A
ĠHill ary
Ġr ank
ĠM ag
c her
Ġp ush
E x
Ġ ir
p en
Ġval ues
Ġm er
. '
Ġc ry
Ġprop os
ĠA ccording
Ġpost ed
O U
so ft
ac ing
ĠFlor ida
r am
Ġmost ly
Ġapplic ation
Ġdeter min
ĠA lex
Ġens ure
Ġestab l
Ġbelie ved
ĠFr ance
ĠTr ans
Ġweek end
Ġwe ight
ĠL et
Ġtem per
it ude
Ġv ac
ri an
ear ch
t ies
Ġey e
Ġwh atever
Ġdev ices
Ġmass ive
Ġinst all
Ġrecord s
Ġreveal ed
ist ry
p ri
Ġlaw y
Ġb rief
ij uana
Ġpict ure
ign ed
Ġstr ategy
Ġen force
Ġun s
a e
Ġpart ies
Ġad ult
Ġqu al
Ġcho ose
Ġbenef it
Ġapp l
Ġf at
Ġwond er
Ġarrest ed
ĠRe g
u ild
Ġstre et
5 00
Ġlear ned
Ġwh om
Ġass ault
Ġd ire
ĠPe ople
Ġm ission
Ġjud ge
Ġfeel ing
I L
9 0
ĠPh il
ĠCh icago
ag s
Ġmem ory
Ġc ars
Ġm ount
ĠL aw
C l
ĠL ou
Ġprodu ced
Ġinflu ence
Ġent er
Ġpat tern
ĠS un
Ġprov ides
Ġt end
li ament
est ic
ĠB ush
st e
ic ial
Ġres idents
Ġask ing
Ġcrit ical
ĠP ort
Ġcele br
Ġconfir med
Ġl ose
Ġw at
Ġneg oti
Ġoper ations
Ġprodu ce
ĠB it
Ġshow ing
Ġw ild
Ġb order
ĠSt ud
ing ly
Ġim ages
Ġc ru
ect ion
ĠM od
ri ption
Ġse ction
Ġopp osition
Ġdist rict
c ont
ak ed
ĠCom mittee
Ġk ick
ĠPal est
ĠM at
Ġdoll ars
n o
Ġindepend ent
ĠP ress
How ever
Ġrun s
h ttp
ĠW all
Ġadv oc
Ġet c
ra v
ce ll
Ġd er
L e
ĠHe alth
____ ____
or ial
ci ence
ĠSec ret
ud d
ĠS am
Ġsol ution
ent ed
Ġt ick
et ty
Ġinterest ed
Ġdig ital
S T
Ġdeb t
Ġdr ink
u gg
Ġc ore
Ġag reed
ĠComm ission
r ont
ĠC up
Ġv ill
ĠL iber
Ġbr and
Ġte ac
Ġthe ory
Ġhe ro
oc r
Ġeffect ive
Ġlear ning
ĠO h
i ation
ic ians
Ġopen ing
ri al
p oint
ĠFranc is
ĠWh y
ord s
m ine
i pe
Ġdef end
Ġinvest ment
Ġche m
B A
Ġocc as
Ġrest rict
Ġoff ers
Ġb ur
Ġch air
Ġwor se
Ġgener ally
ĠJust ice
Ġhig hest
ĠM al
Ġmar riage
Ġrepl ace
Ġprot est
ĠO ther
ĠKore a
Ġrespons ible
Ġdef e
Ġtri al
Ġmill ions
Ġm ur
Ġbas is
ĠM icro
Ġexpl ained
Ġtr ain
ĠW estern
Ġd aily
Ġmil es
r ig
o ly
Ġtyp es
Ġob tain
ill ing
Ġprop osed
ĠB ecause
ĠM ike
Ġcond ition
Ġte levision
v est
Ġpart ners
ĠN FL
Ġhe avy
w in
The se
Ġopin ion
Ġm ale
ĠO ur
Ġ ice
ur ies
ĠF ound
ad a
ĠOff ice
Ġlim it
Ġspec ies
Ġassoci ated
Ġco al
Ġbecom es
Ġachie ve
ĠM il
Ġre ject
Ġass um
C on
Ġ8 0
out hern
Ġhundred s
Ġunderstand ing
Ġdest roy
Ġadvant age
Ġl oad
r ate
ĠAd d
ort hern
ĠD el
Ġopen ed
ak s
k nown
ber t
4 4
Ġsur round
com ing
Ġth us
ĠJohn son
ĠT er
Ġannoun ce
u pp
ĠSec urity
Ġon to
Ġph oto
ĠM any
Ġprofess ional
we ll
Ġinit ial
ic ip
M r
Ġb orn
Ġb ed
Ġsle ep
Ġm icro
and er
Ġneigh bor
Ġr at
Ġveh icle
Ġbecom ing
Ġs pl
ol f
ĠG reat
ĠU k
l a
3 6
Ġeas ier
ad ing
Ġcontro vers
ĠA tt
ĠIn c
Ġsh ip
Ġacc used
ĠB ig
C C
== ==
az ing
Ġres ist
Ġun like
ĠWind ows
Ġlegisl ation
ĠD ist
Ġvictim s
Ġilleg al
Ġser ve
Ġact ive
B l
od es
Ġsh ared
Ġserv ed
o om
el ine
Ġb omb
Ġredu ce
Ġ3 1
Ġscient ists
Ġdoc uments
Ġm ap
N A
Ġjo in
P A
l ant
h ouse
3 2
ĠAr t
Ġloc ation
Ġpurp ose
ĠComm un
Ġaud ience
Ġreturn ed
Ġwin ning
re y
m et
i os
Ġintern et
Ġbelie f
land s
B S
Ġdep artment
wit ch
Ġbott om
Ġman agement
ĠCanad ian
Ġv s
Ġd ie
le vel
Ġam b
Ġinc red
Ġextreme ly
Ġn ine
z a
3 7
i h
Ġexist ing
Ġ200 6
ĠSand ers
Ġ3 5
Ġput ting
Ġwe alth
Ġsepar ate
4 8
Ġdou ble
or row
Ġch urch
Ġfr ame
ĠL ab
ĠH all
ir gin
Ġexpl ain
ear s
om as
ortun ately
Ġmach ine
as y
Ġsol id
ĠD irect
Ġcom fort
Ġr an
Ġneg ative
ĠIslam ic
ĠInst itute
if ul
i pp
F C
at ically
Ġarg ument
P S
Ġun c
ac ity
Ġcamer a
w orks
Ġnot ice
Ġp urs
r ad
Ġcommit tee
Ġepis ode
ĠY our
Ġte ach
Ġelect ric
ist ics
Ġdoub t
Ġwatch ing
Ġcommun ities
Ġ9 0
G B
Ġhe aring
ĠIsrael i
Ġdefin itely
ĠM ad
Ġinst ance
âĢ ¢
Ġconserv ative
Ġleaders hip
te red
g u
Ġst ructure
Ġvict ory
3 8
i pped
Ġnot es
ill er
Ġback ground
wh ich
âĢĶ âĢĶ
Ġmob ile
ĠB ank
ant ed
Ġapp eal
ili ar
Ġrest aur
ograph y
g a
Ġsupp orters
res p
rib e
Ġmar ijuana
ĠCh urch
ĠF in
he m
Ġf aith
Ġview s
it t
Ġtrans fer
Ġm ax
O L
Ġf resh
Ġlab or
ar io
ĠS l
z en
ĠG ame
om an
Ġlaun ched
gh an
Ġsp oke
Ġh ack
A meric
Ġiss ued
ĠF BI
Ġsit es
Ġdire ction
Ġn or
Ġdanger ous
Ġrepe ated
Ġno vel
Ġco verage
in ct
Ġh arm
Ġref ere
Ġset t
Ġcompet ition
ct ors
Ġit ems
az on
Ġcommer cial
Ġn orth
go ing
ampions hip
Ġfl oor
Ġexper iment
Ġre act
Ġtre nd
Im age
Ġd ed
Ġtraff ic
Ġg e
Ġsupport ed
Ġsuggest ed
Ġcharg ed
g ency
Ġst ated
Ġf alse
Ġh us
Ġdec ade
ĠS ince
Ġcl osed
Ġdrug s
ĠF ox
ĠO ver
E M
rib ute
Ġs un
Ġsmall er
ĠL ike
Ġdisc overed
Ġwor st
ĠE v
v ention
Ġc ateg
ĠJ ones
Ġcomp ar
ĠBrit ain
Ġtell ing
Ġentire ly
Ġas pect
Ġ ;
ic i
Ġdise ase
Ġrad io
Ð ¾
f erence
ĠL os
** **
4 7
Ġd aughter
b ut
Ġold er
ĠW il
Ġfar m
Ġt ask
ĠCar ol
Ġcont ain
ad y
s pe
Ġc ash
Ġdri ving
and on
d o
Ġcont ext
ul f
5 5
ĠP ri
N N
Ġdri ver
Ġfind ing
and om
e qu
Ġ7 0
Ġple ase
Ġpl ays
Ġconcer ned
ã Ĥ
ul ated
Ġlarge ly
se mb
ann el
Ġcandid ates
Ġtool s
Ġg ay
o very
ĠT re
ĠQ ue
b ing
av a
Ġrequ ires
il ing
Ġtest ing
ĠUk rain
Ġann ual
ĠU N
Ġc ards
i us
a it
Ġf uel
Ġanim als
Ġex erc
Ġc aught
r ick
iz es
Ġsur face
Ġgener ation
n ight
ibr ary
Ġwe l
Ġra ise
h ow
! âĢĿ
ĠRober t
Ġjust ice
cept ion
Ġbusiness es
ĠJew ish
ĠS up
Ġstreng th
Ġw itness
Ġstr ateg
ĠM iss
Ġtrans port
Ġbelie ves
Ġconst ruction
ĠP C
Ġins urance
ĠCh ris
Ġst ock
ĠM er
Ġtr uly
Ġph il
ic y
Ġconcer n
Ġmur der
Ġactiv ities
ĠS il
Ġallow ing
oss ible
Ġhold ing
ar ant
ĠG ree
ĠP M
oll y
ph one
Ġcon sequ
ĠAfric a
C H
ĠA M
oy al
an cy
Ġaff ord
ĠA re
os ure
Ġsc ale
it able
ĠK en
Ġplan ning
S P
ĠA c
Ġacc ur
b re
âĢ ĺ
Ġatt end
ĠJ im
Ġban ks
ang ing
Ġl ength
Ġr ough
Ġun it
Ġjo ined
Ġref uge
Ġgu ess
ter y
Ġse qu
4 9
Ġtell s
r im
ak istan
Ġcell s
igr ants
n el
Ġintrodu ced
pect ive
Ġs an
Ġdec isions
ĠAssoci ation
D A
Ġpl aced
Ġestab lish
Ġk id
Ġspokes man
ck now
Ġhigh light
Ġpres ence
Ġinterest s
3 9
ĠAfric an
b our
l or
ĠAngel es
Ġt im
ro s
Ġwa iting
ic on
Ġbl ue
ĠV er
Ġ200 5
Ġupd ate
Ġdown load
ĠJ eff
Ġenforce ment
Ġmention ed
Ġsub sc
M ore
Ġmiss ing
Ġrecomm end
Ġdeli ver
in ter
Ġhom es
ĠT y
ocr acy
Ġhas n
Ġestabl ished
ĠK h
ĠSt ep
Ġrem oved
form ation
k ins
ĠPalest in
Ġinit i
Ġprov iding
Ġocc up
Ġconflic t
Ġab use
e y
ĠG OP
Ġe at
Ġspir it
Ġconvers ation
Ġgr aph
ĠJ ud
ĠP re
Ġinj ury
ĠAf ghan
Ġhous ing
az ine
ron ic
Ġc ook
ot ed
Ġdiscuss ion
Ġnews p
ĠY es
it z
Ġc atch
ĠR ock
ĠMicro soft
Ġuse ful
is ation
wh at
ĠJapan ese
ĠInst ead
ĠG roup
Ġtrans l
om s
T C
v ant
Ġb ul
Ġoper ation
Ġsto pped
Ġmod els
Ġcan cer
# #
Ġf ant
ĠF ore
Ġmeas ures
ic ations
ĠFr ank
c ks
k in
Ġarri ved
it er
ĠLou is
Ġ \
ul ate
l ig
Ġfoc used
ĠLe g
and a
ã ĥ
ĠPro f
Ġs outh
ont o
m ail
ow l
Ġthere fore
Ġset ting
Ġappro pri
Ġphot os
ag n
Ġst ick
Ġass ess
Ġident ity
Ġobv ious
se ason
Ġha ir
Ġident ified
ĠCon st
Ġsp orts
Ġoff ensive
P l
ĠTH E
Ġ201 8
O ur
Ġcommit ted
up s
Ġman aged
Ġconc lud
ig an
pl ace
re al
Ġfour th
Ġear th
Ġfund s
Ġsk ills
ĠV irgin
Ġpre fer
Ġown er
g ers
app ed
ĠC EO
ic ation
Ġfig ures
Ã ¡
um n
Ġfil es
Ġkeep ing
ĠSup reme
igh ter
Ġother wise
ĠM ont
3 4
Ġ200 0
Ġa cknow
Ġgirl s
ver se
Ġex change
itution al
ĠS al
Ġcol lection
00 00
ĠGovern ment
Ġrelative ly
ĠIn ter
out s
ĠAr my
ĠMex ico
Ġfin ished
Ġex clus
oc al
ul a
ĠM et
Ġt ough
ĠR yan
Ġconnect ion
Ġpart ner
Ġstep s
Ġfeel s
ĠN or
Ġsupp ly
Ġf le
k a
Ġslight ly
Ġtax es
ĠRich ard
D es
ĠT im
Ġve ter
is f
m as
Ġhus band
ĠI r
Ġsurve y
u ct
ĠAnd roid
Ph oto
Ġsee k
w ing
Ġdet ect
Ġdep end
Ġg ain
7 5
Ġkill ing
Ġro ll
Tr ump
m akers
Ġsuggest s
ĠMart in
dd en
Ġcirc um
g ar
e ah
Ġme re
ĠS ub
Ġtri p
R A
G o
r d
Ġsecond s
il s
hen s
ony m
anc ing
Ġa ward
ĠS ur
Ġcomm ission
Ġspe aking
Ġwe ak
ï ¿
Ġcl ick
g n
Ġcor ner
Ġsu st
re es
ad ium
Ġag gress
Ġtwe et
od ies
ĠAl though
ens es
r ange
Ġele ments
an ia
is er
Ġrev olution
pro f
Ð °
Ġreg ist
ic ide
Ġment al
ĠD ec
ĠG ood
Ġplan ned
Ġhappen ing
Wh y
ĠP akistan
ol it
Ġst ruct
ag ues
Ġplan et
Ġn one
Ġwind ow
am m
Ġbig ger
Ġtal ks
Ġrem ind
Ġqu e
w ith
ren cy
A A
gy pt
ost on
u ate
uck y
Ġprotect ion
Ġh ate
Ġstri ke
Ġstart s
] .
Ġorganiz ations
Ġfail ure
Ġapp oint
id ering
Ġspe ct
Ġdef ensive
Ġw ish
ĠThe ir
Ġfam iliar
Ġd at
ï¿ ½
hed ul
yn am
Ġgu ard
Ġcre w
Ġg ender
Ġs ides
ĠTh omas
ad ed
Ġthan ks
ĠU s
Ġstand ing
Ġsu dden
st ream
Ġimm igration
H L
Ġcar ried
Ġar my
ĠM ary
Ġam azing
ĠJ oe
y m
Ġscient ific
el ess
6 5
Ġdom estic
ĠJ ose
Ġinter act
Ġp it
Ġdec ide
ut ers
Ð µ
Ġphil os
ĠM P
k es
ĠIm ages
u ke
a wn
ars h
ĠF ire
L ast
ĠRes earch
Ġmult i
Ġenvironment al
Ġdro pped
im al
Ġmark ets
Ġstand ards
Ġhelp ing
Ġsc ript
Ġprofess or
an o
Ġv ul
er ous
Ġvar iety
ob by
c ious
Ġ3 2
ĠAl so
Ġfil ed
h i
ĠO ut
Ġl ived
are n
ĠB ern
l o
Ġaccount s
Ġoper ating
ack s
Ġhum ans
Ġpr inc
Ġneighbor hood
Ġset tle
ĠCol lege
Ġcut s
f e
ĠAt lant
! "
Ġac adem
Ġter rit
a ven
Ġimp ossible
Ġvot es
oc ol
ict ed
Ġposs ibly
r un
it ect
Ġ4 5
ĠServ ice
R ead
Ġturn s
ay er
ĠWe b
ĠPr ime
Ġdeg ree
Ġun ivers
ĠSecret ary
Ġp air
Ġwor ry
ĠFound ation
Ġcol le
i ams
ru it
Ġfell ow
Ġincreasing ly
Ġbe er
ĠD en
Ġun its
Ġbal ance
ill a
Ġr ich
ol a
ste in
Ġult imately
ans ion
Ġhealth y
Ġs ch
Ġapp re
as hed
Ġhon est
Ġaltern ative
Ġco ld
ĠM os
d en
ĠSyri an
Ġag encies
Ġfl ight
ĠL ast
ort ion
Ġinn ov
ĠT wo
Ġapparent ly
F rom
Ġtest s
rast ructure
ain e
Ġpay ing
ĠT ime
Ġrelig ion
Ġun ion
v is
ore s
Ġchang ing
Ġhe at
ĠCent ral
Ġtw ice
Ġdevelop ers
Ġsk in
Ġfund ament
Ġapp ly
Ġabsolute ly
Ġposs ibility
ĠL at
rou d
Ġcorpor ate
Ġv ast
Ġclos er
ĠDist rict
ar ks
at ures
Ġwrit er
ĠU nder
i ot
Ġsc hedul
i as
Ġexp ensive
ad er
Ġapplic ations
os en
Ġap art
ĠB ur
Ġsee king
ĠS T
ip ment
ap ers
ĠP ublic
Ġsold iers
I M
Ġse a
Ġl osing
ĠTe am
Ġintern al
Ġauthor ity
ĠAm azon
Ġsound s
4 6
o ch
Ġm ut
rel ated
Ġdevelop ing
Ġcap acity
u nder
Ġexper ts
Ġregard ing
ist ed
Ġt ack
3 1
Ġbeaut iful
Ġ200 4
Ġsit ting
ĠFrancis co
ĠJ on
Ġimag ine
ĠP eter
p m
ĠP ut
olog ies
I V
Ġsh all
Ġv ision
Ġde ploy
ĠBit coin
Ġp il
idd en
Ġfam ous
ĠCarol ina
Ġun less
ĠTor onto
Ġar ms
l ook
Ġser ver
Ġer ror
Ġpresent ed
en ced
Ġt ast
ĠJ es
ĠP et
Ġatt orney
g l
u zz
Ġint ended
Ġtr ail
Ġad just
Ġfl ow
Ġc overed
E ven
in i
O f
Ġg ar
ĠE gypt
ĠA N
Ġsol ar
p ire
Ġfor ms
ĠB oston
ĠM iddle
w ar
Ġconv ention
Ġcons ult
Ġrespons ibility
h and
Ġanim al
anc he
ĠC amp
Ġelect ions
le ts
U p
or age
Ġo dd
st ate
Ġat h
Ġoccur red
rib le
ov ing
all s
c oh
Ġf ol
Ġf if
ĠC ath
Ġr id
Ġsy mb
Ġt ight
ur ation
ĠMed ic
J ust
Ġestim ated
0 1
Ġy ards
Ġstre ets
Ġsurpr ise
ro ad
ĠG al
Ġsp ort
Ġexper t
ĠUS A
por ary
Ġbro ken
ĠA ri
Ġun iversity
Ġf ired
p erson
ĠJ o
Ġsc r
Ġear n
ĠPl an
Ġtro ops
L E
Ġgu arant
I ON
Ġinst it
ĠS ol
Ġhelp s
-------- --------
L et
Ġrap id
( )
ed er
ĠV e
use um
ĠM ur
al ing
Ġloc ated
Ġpro secut
Ġte en
Ġpro ve
Ġveh icles
Ġdom in
Ġdeter mine
Ġspecific ally
ri e
ust er
Ġvul ner
ĠI N
ĠR iver
O W
Ġpie ces
ĠCh ief
ress ive
Ġd in
Ġfact ors
ĠM ass
Ġt on
ce an
Ġcomb at
Ġbro ke
Ġp et
ĠGu ard
Ġn ar
ĠTh ose
Ġb aby
in ent
Ġhy p
Ġbring ing
Ġer a
Ġpot entially
Ġmethod s
ĠO nce
ot y
ter day
our s
Ġequ al
0 5
Ġcoun cil
Ġcon clus
Ġgovern ments
Ġbo ost
Ġf aster
ĠPar is
ĠSoc ial
end ment
Ġprep ared
Ġst ars
y r
ĠVirgin ia
Ġhe av
Ġoff ering
Ġvot ed
Ġchalleng es
Ġpropos al
Ġrul ing
Ġcar bon
ly n
Ġse lling
Ġequ ipment
Ġconduct ed
is her
an ish
" :
Ġpoint ed
ĠAn y
Ġelect ed
Ġse asons
D P
ph as
Ġj ail
Ġse ctor
th at
s en
Ġst ress
Ġinf rastructure
Ġref used
ĠJ ournal
cl ass
E very
Ġsec ure
I P
Ġpl enty
ĠC ur
Ġorig inally
Ġrem ained
ĠLe e
Ġb reat
ĠF ederal
ĠPro t
D o
Ġr andom
ĠWh o
h t
Ġb row
Ġdr am
ed ia
ĠAustral ian
ĠF e
9 5
Ġd ream
ĠP lease
ĠD uring
Ġcl in
ĠIs land
Ġret ail
Ġexpress ed
Ġcl ot
Ġvot ing
Ġgreat est
Ġcl im
ol ved
i pping
T H
Ġsh ape
Ġaffect ed
on om
ĠR ub
Ġwere n
A b
n oon
ure au
Ġpercent age
Ġcritic ism
ĠR em
Ġm aster
ĠO pen
Ġpr ime
p ired
Ġb ought
Ġs ale
Ġcult ural
ock ing
Ġrem ove
Ġc as
Ġtr ig
Ġsign s
ĠC ru
ĠS pr
Ġher self
EN T
Ġt ourn
Ġchem ical
ce l
Ġyou th
Ġappear ance
Ġst ret
ri er
Ġdetermin ed
Ġh urt
Ġinvol ve
Ġpos itions
ĠFor ce
Ġsignificant ly
stand ing
Ġg rew
ash ion
re ens
ĠWill iams
S ince
C ont
= "
ĠS ant
Ġweap on
Ġth r
Ġfac ing
Ġw ood
Ġfil ms
igh ters
ĠM el
ro g
b ur
ĠB oth
ve y
, '
Ġrem aining
F irst
Ġ199 0
Ġobv iously
Ġpurch ase
I G
Ġreg ime
Ġ= >
Ġte le
Ġre nt
ĠS ing
Ġind eed
c ol
ĠF ree
ĠSte ve
Ġfin ish
4 2
Ġexperien ced
Ġ19 5
Ġpolit icians
p et
Ġvide os
Ġarg ued
Ġre venue
ord in
et ic
Ġsupport ing
Ġcons idering
Ġsh ift
Ġair craft
g ment
Ġredu ced
Ġpros pect
ly mp
Ġhand le
S S
Ġ5 00
Ġrecord ed
Ġmin imum
Ġcont rast
Ġexc ited
Ġsurpr ising
Ġdep art
Ġwe aring
, [
Ġacc ident
ens ions
Ġpull ed
Ġpro ced
ĠR ad
ĠCol or
Ġa st
Ġeven ing
ĠJack son
od d
un ction
ess ions
T V
Ġa id
ĠR o
Ġcon cent
ĠR oad
l ife
C L
ow nt
Ġpl us
Ġbas ically
ĠH aw
P e
Ġlead s
Ġm arg
Ġh un
Ġsub s
ĠPh oto
ar p
ĠB ook
Ġmot iv
Ġmin ute
Ġexpl os
Ġmod e
Ġv ir
Ġappre ci
Ġs witch
Ġopportun ities
m m
Ġb ound
Ġobs erv
ru ption
tern al
Ġconst ruct
S p
ab ilities
Ġdiffere nces
Ġemer gency
ut s
ĠP ac
Ġgl ass
Ġident ify
ok ing
Ġbel ong
Ġsp ring
Ġt act
6 4
Ġafter noon
Ġtre ated
Ġlist en
ang ed
ĠM att
og ue
he red
Ġdis s
h ab
Ġconsum ers
Ġhop es
Ġcomple ted
Ġpan el
ll er
ĠH ol
Ġtalk ed
Ġser iously
ĠChar l
c are
Ġwide ly
Ġ200 3
y th
P R
Ġag ent
ĠCons erv
app ing
Ġvis ual
Ġpriv acy
Ġcomb ined
ĠP ower
A pp
Ġse at
os ite
Ġt urning
Ġopp osed
Ġend s
Ġfact or
Ġliber al
ap ter
Ġpack age
Ġt ur
W ell
Ġapp s
Ġdef ault
I nd
ĠSp ace
ed s
H is
Ġp owers
ĠD aily
Ġsu it
Ġtyp ically
ra wn
Ġ //
Ġdisc l
as p
ra ud
om pl
Ġp ages
or al
ac he
Ġlot s
Ġadv ance
Ġc art
Ġm ort
ĠS aud
Ġpass ing
Ġdis miss
Ġtrou ble
ĠPro ject
m osp
Ġre action
id el
Ġ200 1
ff ee
Ġstrugg le
Ġpl ants
Ġh ol
ĠG et
ĠN ov
Ġfl at
Ġcal cul
Ġz one
Ġm al
u ous
Ph one
P D
ob e
] ,
resp ond
An other
S e
Ġenem y
coh ol
Ġb odies
Ġ id
Ġe lement
Ġb urn
ive red
Ġinst ruct
Ġpro ceed
ok en
z er
Ġval id
Ġqu iet
ribut ed
ĠSh ow
0 4
Ġattempt s
Ġthan k
ĠS qu
ĠO lymp
D e
es ters
Ġstand s
Ġden ied
Ġwrit es
t op
ne ll
ĠN AS
Ġent ertain
pl om
Ġfr ust
Ġt un
Ġref erence
Ġset s
er ry
k et
ĠM em
Ġcoll abor
it a
w rit
Ġqu ant
ed d
Ġmat ters
l ines
Ġappro ved
Ġrep orters
Ġsat isf
A m
Ġdisapp oint
Ġbroad cast
Ġrespond ed
f ree
st s
Ġdist ance
ĠT oday
at o
Ġcopy right
Ġcre ation
Ġtrad ition
Ġre new
U T
ĠB BC
Ġtrans ition
Ġse m
, âĢĻ
Ġexpl o
Ġfl ag
Ġun able
Ġs ac
Ġup gr
Ġel imin
ĠSy stem
Ġprom pt
Ġp itch
ĠR el
ap ed
ain ts
est ival
m ond
uc ks
Ġconf ident
Ð ¸
Ġopt im
ĠY et
Ġst orm
Ġcap able
Ġappro x
ĠS cience
Ġcl oud
Ġhttp s
ĠP enn
Ġexperien ces
Ġinstit utions
is ters
ani el
Ġcr imes
Ġpict ures
raz y
ĠDirect or
Ġspl it
Ġreported ly
Ġnum erous
Ġpers pective
res ents
il it
Ġb ull
al ed
ĠWill iam
ĠMed ia
il ty
Ġdecl ared
I I
r ant
Ġcapt ion
Ġg iant
r id
Ġc raft
us iness
ul ations
Ġad vert
ell y
ab led
p ass
as tern
ĠF ollow
Ġgr ab
Ġtechn ical
Ġco ast
Ġmov ies
Ġfac es
Ġconf idence
Ġse vere
Ġg ra
Ġm and
Ġfor get
Ġp roud
Ġsuff ered
ĠTur key
Ġmar ried
t ion
Ġfor g
u ations
k er
Ġon going
Ġco oper
is hes
amp ion
0 9
Ġnewsp aper
Ġexpl ains
h ost
Ġf ly
ĠW ood
un te
Ġshould n
Ġord ered
Ġl oved
Ġadv ice
Ĥ ¬
Ġupd ates
Ġwe ather
ĠLab our
4 3
Ġinj ured
Ġcircum st
Ġad mitted
Ã Ń
Ġro t
du le
em ploy
ĠAfghan istan
re land
7 8
Ġarch itect
â Ī
ĠT ra
Ġmess ages
ĠGr and
Ġreport ing
Ġbuild ings
Ġdel ay
ĠR on
O ver
ĠH uman
az a
ad ow
Ġacc ompl
Ġappropri ate
Ġfind ings
Ġconnect ed
Ġthough ts
c alled
Ġev al
Ġsubst ant
ound ed
Ġrout e
ĠChrist mas
6 6
Ġdecl ined
ĠAnd rew
M A
ion ally
Ġa uth
R ep
ab in
O ther
Ġstate ments
Ġour selves
Ġle aves
Ġed ge
ĠSc ot
Ġviol ent
ĠB et
Ġedit or
O D
D uring
R es
Ġconf irm
Ġte ch
ev in
ĠA v
raz il
ov es
ner gy
Ġdel ivered
Ġpublic ly
ans as
Ġem ails
ent ure
ac ter
ĠW al
ĠA T
Ġd ial
Ġlawy er
Ġr ail
se x
Ġem phas
Ġar med
Ġ198 0
o oth
Ġpract ices
Ġf ish
Ġterror ist
ang ers
Ġphilos oph
ĠS ov
Ġf illed
ĠPh ot
Ġg ather
Ġca uses
Ġpick ed
Ġpr in
Ġgun s
ell ow
Ġex cell
Ġcent re
ĠMuslim s
ĠS her
Ġread ers
r ich
Ġmor al
Ġobject s
Ġpat ient
ĠOh io
ĠRe v
Ġpo ol
Ġper man
c ons
L S
Ġt ree
Ġv an
c os
u y
Ġwalk ing
Ġreal ize
Ġcont ains
Ġtrans form
ord ers
Ġleg it
c an
Ġd ynam
ess or
Ġarg ue
Ġexp ansion
M any
Y es
ĠMich igan
or se
ĠSw ed
et te
Ġag ents
Ġsub sequ
Ġeffect ively
: :
ar n
ul s
ĠG en
ĠUkrain e
4 1
Ġb ond
Ġactiv ists
l ong
Ġr ain
d ate
Ġtal ent
Ġexerc ise
Americ an
Ġinit ially
Ġcan n
ill ance
Ġart ist
ĠB at
Ġdeb ut
ĠS ign
al a
end a
Ġmiss ed
Ġs ad
ĠB ack
Ġth inks
Ġgovern or
ar ters
as ure
d ef
g ia
Ġcr ack
Ġdes ire
our ney
ar l
ĠSe e
m ates
Ġexam ples
8 8
ĠF er
Ġsh op
Ġlink ed
Ġsecret ary
ĠI D
ĠRe ad
i at
Ġwe ar
ĠM a
ĠSt r
Ġincre ases
Ġmag azine
Ġlab el
Ġmot or
ĠH y
T ube
ĠSt an
Ġs ession
Ġquarter back
ĠD ou
ĠG M
Ġwar ned
ill y
Ġalleg ations
Ġinj uries
Ġexpl an
ĠBo ard
Al though
ĠL in
Ġfl ood
ag ers
ĠV ict
ĠL ife
or ry
ĠM ount
O h
ĠS um
Ġnecess arily
Ġplan e
Ġfac ed
Ġinc or
r um
F ollow
Ġdo ctor
Ġrad ical
ĠTe chn
Ã ¤
Ġcl ient
ĠW ork
Ġat mosp
Ġab andon
A dd
Ġhe ll
ad or
T A
Ġ3 6
ĠSec ond
ĠI reland
Ġrep resents
ĠP rem
Ġp ra
ĠR E
Ġfact s
Q u
Ġadv anced
en ger
Ġess entially
ER S
ĠJ ul
Ġperform ed
Ġne ither
Ġn ations
Ġannounce ment
ĠO k
Ġm ir
ed y
Ġdist ribution
Ġfr anch
Ġp ure
S pe
ou ston
Ġdi plom
Ġfollow s
am in
Ġvar i
Ġaccept ed
ĠR od
ĠSe attle
Ġmy ster
Ġrem ark
Ġb are
ic ing
it ors
Ġch art
Ġrestaur ant
i est
Ġnear by
Ġs ke
Ġwith d
Ġschedul ed
ĠD an
Ġdec re
ĠI ll
Ġ ing
l aw
Ġa f
ĠC NN
Ġevery body
Ġi Phone
Ġal t
ĠC ub
g ent
Ġmaterial s
Ġst orage
C an
ĠK im
us al
Ġplay off
Ġadd s
ĠBar ack
ab b
Ġoff ense
Ġp hen
ĠIS IS
ĠH en
Ġwar m
Ġdri vers
ir ty
ot ic
Ġgu ilty
Ġsu c
Ġsong s
Ġbeg ins
Ġlist ed
Ġfl o
Ġfor t
Ġres olution
es ome
T S
Ġtot ally
M ost
Ġexist ence
ĠE lect
Ġyes terday
Ġsa v
w ord
ri p
5 7
Ġst ood
Ġsurpr ised
ĠJew s
Ġs am
ĠKore an
Ñ Ĥ
Ġcomb ination
Ġlaws uit
Ġnet works
Ġtemper ature
The n
Ġmov es
Ġsp ons
Ġsh ots
ĠV ol
Ġinvest ors
w ater
Ġimpro ved
Ġcor respond
Ġs ought
Ġ200 2
Ġin put
Ġappl ied
ĠF ar
st r
ĠOn ly
ird s
Ġ3 00
Ġdiscuss ed
Ġj oint
Ġdem ocracy
en a
ĠT O
Ġf ill
ĠA ff
Ġpus hed
Ġthreat s
ĠW he
Ġdat ab
semb ly
st ood
O b
Ġr ide
ĠD iv
olly wood
Ġrough ly
Ġconsequ ences
w hel
ĠBl ue
ĠWe ek
Ġout put
ĠCol umb
Ġcolle agues
Ġl ibrary
ocrat ic
Ġ3 3
Ġre in
Ġev olution
ide o
Ġbr ings
Ġsqu are
Ġcreat ive
Ġb oss
Ġhead s
Ġen h
ĠCl ub
ĠL ake
Ġfun ctions
ĠDe velop
ĠRom ney
Ġboy s
on na
Ġent ered
ac le
Ġr ising
ig ure
I F
ĠDe v
Ġl ie
Ġpar liament
Ġis land
Ġmanufact ure
Ġcont est
Ġres c
ic ious
d is
Ġmet al
Ġart icles
P U
b orn
ic ian
Ġro w
Ġhistor ical
ĠIt s
Ġl inks
Ġpl ot
Ġwar ning
Ġfair ly
Ġconsist ent
g reg
Ġent ry
Ġbehav i
ĠAn other
Ġr ally
Ġn av
Ġres ident
Ġto w
Ġunlike ly
ath an
om in
F P
ĠB razil
al ty
Ġyoung er
ĠB oy
Ġheav ily
ĠH ist
Ġbut ton
du c
ok ed
f ortunately
Ġstore s
Ġclass es
ĠSaud i
ĠAs ia
Ġn ative
Ġany where
Ġath let
Ġsc ored
etro it
m es
Ġrece iving
ĠR ights
Ġk it
ĠW alk
Ġbr ight
Ġsuc ceed
8 6
Ġimport ance
Ġvers ions
iqu es
O C
Ġexpress ion
Ġfac ility
p ower
Ã ³
ag an
Ġb ike
ere nces
ĠB ob
I R
om a
ĠE ach
Ġreturn s
Ġclass ic
Ġstr ing
ĠMay be
Ġpro hib
Ġbu ying
ol ve
Ġdeath s
ard en
Ġsymb ol
s hip
Ġdef ined
Ġf raud
Ġdo ctors
iss ions
w est
z ona
Ġrepl aced
Ġalleged ly
Ġprot ests
Ġc ere
es c
ĠC IA
ĠE r
Ġb on
Ġtarg ets
Ġmarket ing
Ġbre aking
Ġhard ware
S ee
Ġcur rency
Ġal cohol
ĠN BA
Ġsome what
Ġh at
Ġsh if
Ġregul ations
Ġhouse hold
it tle
st yle
Ġl augh
Ġman age
al ian
Ġhop ing
Ġconsum er
Ġcamp us
Ġhold s
Ġb ot
Ġwas te
p o
M an
Ġess ential
Ġv ice
ĠD C
Ġfav our
omet imes
Ġbl ow
Ġad m
op y
Ġint ention
Ġem pt
Ġfew er
u a
Ġsy m
p ret
ic an
p ress
Ġd ownt
Ġl ock
ch o
7 7
Ġse es
Ġopp osite
Ã ¼
het ic
Ġcustom er
Ġmot ion
E n
P ol
ĠR am
Ġindust rial
Ġmom ents
Ġg rown
ĠL ib
Ġeff icient
Ġprom ise
Ġr um
Ġclose ly
G et
Ġact s
Ġch ain
Ġrele vant
Ġsch ol
Ġc ert
ke l
i i
ĠC ard
ĠG ames
ĠS ports
ĠIm age
pr int
Ġsuff ering
ĠBro ok
Ġsy n
t witter
el lect
Ġparticip ants
and al
ut ch
Ġpre gn
m l
Ġill ust
erv es
Ġsh aring
ĠY ear
Ġs ick
ĠColor ado
n ame
ĠS ky
ĠM s
ul ous
ĠD ie
Ġbu g
Ġcy cle
Ġ3 8
Ġadult s
Ġhard er
Ġimmedi ate
ock et
ĠYou Tube
Ġemot ional
Ġto m
ĠAn n
ter ing
in em
ĠG ar
Ġsqu ad
Ġcircumst ances
ot al
Ġh ur
Ġacknow led
oc key
rom e
Ã ¶
olog ist
Ġmechan ism
g as
Ġw ave
Ġm ine
Ġkind s
Ġz ero
Ġvol unte
Ġext ent
Ġopp onent
ĠR ight
ĠW atch
0 6
ĠPalestin ian
c hen
Ġown ed
Ġf ashion
Ġrefer red
ay ers
Ġdep th
Ġan cient
Ġtr ick
Ġman ner
ĠCath olic
ate ll
ĠVal ley
ĠW ild
ĠW ik
Ġis ol
Ġdec line
n ic
Ġfeat ured
Ġdetail ed
Ġche ap
ĠDav is
0 8
n am
Ġact ing
Ġauth ors
ĠSov iet
ob b
Ġgu ide
Ġtourn ament
ĠPut in
ĠE ric
f oot
Ġart ists
Ġfundament al
ĠH ouston
Ġt iny
Ġs now
Ġfor med
x y
Ġp ip
Ġw ins
Ġear ned
Ġreg ional
ĠO ld
cer tain
ĠO F
Ġdescrib e
Ġcarry ing
Ġun us
Ġrelationship s
f riend
Ġcompet itive
ef ully
Ġint ent
c hers
Ġter min
Ġfrequ ently
0 7
ĠD i
ĠJes us
Ġl iqu
Don ald
Ġpost s
ĠA ut
ĠE ll
Ġem br
Ġdiv ision
b ar
Ġinst ru
u ated
Ġsche dule
C om
ĠH el
Ġbat t
Ġalong side
Ġc razy
v a
Ġsurve illance
Ġb ag
Ġm outh
Ġl ies
ord an
Ġ4 9
ĠSu pp
Ġcomfort able
ĠG ra
Ġ3 7
Ġexcell ent
Ġco ffee
ĠW ay
Ġsent ence
Ġme at
Ġattempt ed
Ġs and
ig er
Ġimm igrants
h us
Ġrepeated ly
Ġstr ange
Ġupd ated
Ġhot el
iam i
' ,
aw a
g ame
ĠL ong
r ison
Ġcontrovers ial
u able
Ġstru ck
Ġup coming
Ġsign ing
Ġcommit ment
Des pite
ens us
Ġded icated
lud ing
or a
Ġe gg
an es
we ight
Ġcol umn
Ġdeep ly
Ġs ister
Ġreal ized
az i
ĠW ars
ĠE nergy
ĠC y
Ġrep ut
D S
P er
ĠH ome
ad el
az e
Ġ4 8
b el
Ġt ort
Ġins pired
Ġca using
oc ation
Ġw ire
Ġpus hing
O RE
Ġpl ed
ĠChar les
Ġwalk ed
iz z
T wo
Ġstud io
ri ve
L ike
Ġtarget ed
b urg
Ġr ing
ĠE conom
Ġun iverse
ĠD own
ĠC le
Ġterror ism
0 3
ce ived
all as
Ġserv ing
Ġchair man
Ġord ers
ici ency
b oy
k o
am ily
Ġproper ties
Pe ople
ĠAg ain
Ġmed ic
0 2
y ou
Ġfl u
Ġass ets
Ġch annel
ĠM en
um ber
v in
iven ess
av or
Ġra pe
Ġag enda
Ġcr ash
Ġstre am
Ġappro val
Ġliter ally
Ġprotect ed
Ġmain stream
ĠAri zona
Ġsu icide
ĠM ot
p an
ograph ic
Ġnews let
Ġj ourney
ĠI P
ĠYou ng
ĠL ord
Ġris ks
ĠF ort
Ġne ut
Ġvirt ual
ĠP R
ĠN Y
Ġsim pl
Ġcon gress
5 6
ĠCru z
Ġover whel
m un
Ġw ake
Ġur ban
ĠJ ava
ren ce
Ġd u
ĠDef ense
or ation
Ġsubs id
so le
Ġcommunic ation
Ġlat ter
5 9
Ġwat ched
Ġus ual
Ġdeal ing
Ġvol ume
Ġobs erved
et her
ĠS ar
ĠEn ter
Ġsurround ing
Ġ3 4
ĠV an
Ġprec ise
Ġknow ing
Ġg od
Ġfor th
Ġse lection
ĠD etroit
r ors
Ġsk y
Ġpass ion
Ġh all
ĠM ax
Ġwin ter
ĠF il
g or
u gh
Ġf asc
f ire
Ġex hib
Ġab ortion
Ġprom ised
Ġas ide
Ġ197 0
Ġk ing
Ġrequire ments
Ġal ive
ph y
st one
ult ure
Ġexpl ore
Ġopp onents
Ġdestroy ed
t a
ĠT op
im ents
Ġform at
ĠT al
ĠJ r
Ġrefuge es
O r
Ġfol ks
I nt
Ġsh o
ĠStep hen
i xt
Ġdes k
Ġrem ote
Ġdisc over
Ġsk ill
ang es
Ġnot iced
Ġs ending
ĠB est
Ġp al
ĠH ollywood
M ay
Ġn orthern
Ġun employ
Ġphen omen
i pl
Ġn arr
Ġbat tery
Ġfem in
Ġbl ame
onym ous
w oman
Ġwel come
Ġâ Ī
x ual
Ġtest ed
Ġexc iting
ĠW at
Ġd iet
Ġnar row
ĠT it
N C
Ġloc ations
Ġteac hers
i ro
r ations
Ġun known
ĠC ast
Ġapprox imately
ĠPol it
Ġprot esters
Ġg ap
Ġmat ches
Ġw est
Ġmist ake
L A
ing u
Ġmax imum
F r
ĠWil son
ens ity
Ġbas ket
Ġnom ine
Ġpro te
ĠIn s
Ġany way
Ġdefe at
Ġthem e
ĠK evin
a o
at i
Ñ ģ
ap se
p ost
Ġst im
Ġre ward
Ġinvol ving
Ġshe l
ĠCh ild
ab is
Ġterrit ory
l v
Ġw al
Ġmod er
Ġpro of
Ġsust ain
ac c
Ġret ire
al le
Ġde als
Ġe ating
Ġmere ly
Ġhe ight
Ġob lig
Ġproper ly
Ġext ended
Ġfix ed
og an
6 8
Ġattack ed
ger y
ĠAr ch
ĠL u
ĠM ic
Ġprom ote
ĠD NA
Ġf uck
R el
Ġimp ressive
Ġslow ly
ĠSoc iety
ĠD ar
Ġs ample
Ġcon ver
Ġit em
Ġrequ ests
ĠM iller
Ġsudden ly
Ð ½
Ġch ose
Ġlic ense
Ġad apt
Ġd ry
ay lor
ĠBr ad
ins on
Ġobtain ed
Ġdis ag
Ġput s
ĠAg ency
it arian
Ġdi agn
d ro
Ġteac her
l ies
ĠNAS A
Ġtop ic
Ġtyp ical
Ġass ume
Ġwor ried
ĠP an
Ġw age
Ġfe es
Ġselect ed
Ġg ang
as ks
Ġrecogn ize
os is
C A
Ġfac ilities
ĠF ord
Ġconf ront
Ġfranch ise
Ġunder stood
ow ered
Ġreg ions
um s
Ġconf ig
Ġhon or
Ġswe et
Ġstrong ly
Ġcompar ison
Ġso le
Ġsupport s
a ire
ĠP S
Ġcommunic ations
Ġarg uments
Ġth read
ce ler
ĠAd minist
ig ation
ĠC amer
Ġw id
au g
ver ty
Ġph ase
ĠW omen
ĠIt aly
V ER
ra id
Ġconst ant
red it
Ġlim its
Ġe ast
ack ing
Ġr ub
k ay
ĠD am
Ġjournal ists
Ġdr ag
Ġpo verty
Ġresist ance
Ġh its
al o
Ġsche me
ĠD un
% )
p ool
ĠGeor gia
ĠIr ish
ĠL and
Ġcond em
Ġp ed
as er
ax y
Ġcrit ics
Ġlik es
Ġwin ner
ĠF our
ĠN ations
Ġtrans p
Ġ7 5
ĠM iami
c ers
Ġperson ally
Ġd ress
Ġall ies
Ġequ ival
Ġcontro lled
Ġb unch
uild ing
Ġvill age
Ġstrong er
ĠCar l
Ġfall ing
ow a
Ġch ampion
Ġhar ass
ur a
Ġexp osed
Ġf lex
Ġsome how
ĠN ight
âĢĻ .
Ġencour age
ĠCl ass
Ñ Ģ
ĠSp anish
Ġesc ape
ĠNet work
w an
Ġdefin ition
g ender
ob ile
Ġb id
pect ed
Ġs oul
T e
Ġin qu
ĠN HL
Ġcut ting
Ġtr uck
Ġs outhern
GB T
< /
c ow
Ġfield s
C S
Ġdirect ed
ort ed
Ġmeet ings
5 3
ĠJer sey
ĠComp any
ast s
ar ity
a un
m o
J ohn
Ġcomp rom
." [
ig g
ĠAs ian
Ġsome where
ĠSt and
rim ination
l ist
ĠD aniel
Ġrul ed
9 2
Ġpurp oses
Ġev il
ci ples
z ens
Ġamount s
r ary
Ġend ing
Ġpar am
5 2
Ġ icon
Ġstret ch
Ġlet ters
Ġprof it
Ġt ies
se a
p es
Ġem issions
ĠDes pite
v y
end ers
Ġde leg
Ġclaim ing
Ġempt y
Ġdec ent
or ic
Ġfind s
Ġpun ish
ĠTh ank
Ġf old
Ġdog s
c ript
Ġint ellect
N E
Ġdes per
9 8
Ġre tain
Ġtre es
Ġdri ven
ĠL ove
Ġan x
ar ry
C E
Ġd rawn
ĠK n
ĠAtt orney
Ġide al
Ġoffic ially
Ġpoll s
ad s
Ġaspect s
Ġfif th
nes ota
in er
Ġcol on
Ġtrad ing
Ġemploy ee
ot ten
ĠC am
Ġf ighters
Ġvac c
Ġprim arily
Ġch osen
ĠRe al
h an
ĠScot land
if orm
Ġreason able
ld er
Ġgot ten
ĠW ater
Ġ Î
Ġbe ar
r as
Ġcapt ured
Ġgood s
ĠTh ough
ow ed
int end
Ġact or
om ing
Pol ice
Ġdist inct
Ġhous es
ĠL abor
6 7
Ġp ic
Ġdevelop er
Ġreject ed
Ġsome body
ll s
ĠIn f
Ġconst antly
Ġdec k
Ġex ists
ĠTur k
st ers
Ġb le
Ġeng age
Ġu pper
Ġreg ularly
Ġpay ment
Ġext ensive
U R
Ġsign al
Ġthreat ened
Ġcho ices
ĠServ ices
Ġconst it
Ġsit uations
5 8
Ġad mit
Ġenc oun
un ning
s m
Ġcont em
is an
Ġsp in
ĠSe a
Ġr ival
Ġcour ts
ep ing
Ġpay ments
l ock
ĠE nd
Ġf lying
ic er
Ġsol utions
Ġtechn ologies
Ġansw ers
ĠD ark
Ġelectric ity
ĠR og
An y
Ġperfect ly
Ġmix ed
Ġb oot
ĠL ew
Ġout come
Ġben ch
Ġdatab ase
Ġworld wide
ir ms
ĠB ell
ĠC D
Ġresult ing
anche ster
ĠW here
Ġinc l
hip s
ĠCh ampionship
Ġap artment
Ġcru cial
ĠM S
ick en
O nce
ĠJ ordan
Ġcomp onents
Ġm urd
Ġse ats
reg on
Ġelse where
Ġcontribut ed
ĠD allas
Ġs ight
ĠMo ore
ĠG all
ĠH un
Ġkeep s
ind ing
Ġany more
ian a
Ġprof ile
ĠV iew
ch ain
Ġp od
ĠIt alian
ear ing
Ġfeed back
ĠS k
c r
Ġatmosp here
Ġdem ands
Ġfound er
3 00
ĠB as
Ġcons cious
Ġcateg ory
as ters
Ġbase ball
ap es
ĠOr gan
Ġestim ates
Ġcoal ition
st ar
Ġincred ibly
ĠAc adem
ĠB rian
ĠAd am
e z
Ġnarr ative
ĠW in
ĠC at
Ġmay or
in ations
O ff
Ġenem ies
Ġr ig
ost er
Ġno body
ack ed
il arly
Ġbill s
Ġt ank
Ġman ip
Al so
ĠS outhern
ĠO S
Ġ 00
ot es
Ġbre w
m od
Ġg ro
if er
Ġaccur ate
Ġprov ince
M P
ĠVict or
Ġregist ered
em en
Ġaw esome
Ġdoll ar
ph ia
Ġwrit ers
Ġincred ible
im p
Ġret urning
Ġtick et
ĠT est
Ġbit coin
M S
Ġpain t
ĠB owl
Ġmach ines
Ġter rible
ĠA uthor
Ġpark ing
Ġconclud ed
ĠL ight
f ast
Ġrec overy
the re
Ġemploy ment
Ġcontrol s
l ers
ĠSte ven
Ġcon ven
Ġn ut
ĠC ivil
Ġcontin uing
T oday
Ġun p
on ic
Ġwe ird
Ġdo zen
Ġnew ly
Ġent hus
r ates
al i
Ġgener ate
Ġrepresent ed
ĠE p
N e
Ġra ising
Ġst ead
Ġang ry
Ġexplan ation
Ġex cess
ĠB ru
y e
Ġrout ine
Ġt ied
ess ed
5 4
ĠDis ney
Ġconclus ion
adel phia
ag ram
r age
ĠH ot
Ġgr anted
Ġinform ed
ĠS C
Ġro ster
Ġpl astic
Ġcl ients
Ġorgan ized
Ġcount y
Ġaggress ive
Ġinn oc
Ġ3 9
Ġeng aged
isc ons
Ġlo an
D r
Ġst uck
Ġt all
ĠT w
er a
Ġprov ed
iscons in
b al
Ġim per
ri a
Ġ( $
Ġcapt ure
it ar
Ġha bit
Ġscen es
ĠConst itution
Ġcons pir
Ġsuccess fully
im a
ĠPro gram
ĠRom an
Ġdrink ing
ĠG i
ĠK urd
ĠS n
ĠTh anks
ĠCon f
Ġassist ant
G etty
ĠI d
S ec
Ġ199 9
re ams
Ġg aming
Ġmy th
ĠA R
ific ations
B ecause
Ġcompl icated
Ġpil ot
in ity
m ont
ar on
Ġinter pret
ĠU t
Ġcomp ens
Ġs atell
Ġaim ed
Ġcompl aint
act ions
Ġthe rap
Ġ iron
Ġh idden
Ġr ating
Ġbl ocks
Ġ âĢĻ
Ġmag ic
ĠJose ph
ĠA venue
rap h
Ġpen alty
es y
ĠCont in
Ġprogram ming
Ġrep orter
k ed
Ġk il
Ġr u
Ġsol ve
Ġlaw makers
ĠB alt
Ġdeg rees
Ġconsum ption
ĠC are
Ġinst alled
ĠB usiness
r ating
ĠM ars
Ġtechn iques
isc al
ĠC ross
ĠSp ain
ann y
ĠPac ific
Ġhe l
In st
gor ith
Ġt aught
Ġp in
ul es
E d
ĠE duc
Ġch ances
b a
Ġad s
Ġaud io
% .
Ġrec ording
ĠMin nesota
Ġc up
ĠSen ator
Ġatt ended
u an
Ġoper ate
u ine
it als
Ġinf ect
Ġautom atically
Ġassist ance
Ġ4 2
Ġacadem ic
5 1
Ġph r
Ġind ex
Ġorig in
Ġperman ent
Ġr us
he nt
re te
Ġw estern
Ġveter an
Ġcomp re
re p
Ġsh ares
Ġne uro
ĠZ eal
Ġsurv ive
Ġext ract
ĠDe ad
Ġteach ing
Ġb om
Ġvis ited
ur b
Ġest ate
Ġreput ation
ĠA h
Ġro ot
Ġsuff icient
Ġext rem
> >
ĠT em
Ġregard less
Ġover se
Ġgr ant
Ġ1 50
Ġval uable
ĠF re
Ġsh it
Ġrac ial
Ġen able
Ġmon it
Ġant icip
==== ====
Ġd ict
Ġins pir
o z
Ġacc omp
Ġtit les
a ed
Ġadop ted
ĠFore ign
ĠO per
ever al
Ġel ite
ĠN BC
Ġ6 4
Ġdownt own
Ġmark ed
ĠV iet
Ġch at
the w
ĠPar liament
Ġm ail
Ġlawy ers
ol t
ĠN ation
Ġt rib
Ġf ake
Ġfun ny
Ġcollect ed
Ġd im
ib ilities
L C
et ary
Ġvulner able
se ll
Ġcom ic
ĠSt ill
Ġdef ence
mon th
ĠN ick
ĠSer ies
Ġmed ium
w orld
Ġpattern s
Ġenjoy ed
Ġprin ciples
Ġwar ming
Ġport ion
Ġsym pt
atur ally
Ġprom inent
as hes
Ġch ampionship
ĠJ osh
ĠT urn
Ġaf raid
9 7
Ġun certain
Ġbr ut
Ġnegoti ations
Ġp ace
Ġext ension
qu arters
id ency
H S
Ġb es
Ġtast e
d a
ry pt
M e
ĠSpe cial
Ġmain ly
Ġp ounds
ĠO s
ĠIn vest
ĠL ook
Ġdep ending
ĠC oll
Ġadv is
cl ing
Ġpl ug
9 6
Ġperson nel
Ġpriv ile
Ġg all
Ġequival ent
Ġc able
ind er
ĠL GBT
ĠMos cow
r ific
c les
b ro
Ġsp r
Ġsan ctions
Ġdescrib es
ab ama
Ġprocess es
az z
or ne
Ġsu p
Ð¾ Ð
f rom
ĠE astern
Ġexpl icit
Ġtrack s
Ġdis aster
ĠT ake
Ġtrou b
ĠGree k
ĠI T
Ġe lev
Ġwork er
ic ate
Ġint ense
Ġemer ged
t es
Ġf ought
Ġposs ession
ant ic
R ec
y stem
ĠT ony
Ġy ield
Ġph ones
Ġag ric
Ġresult ed
Ġcry pt
Ġap olog
ĠA L
â ĸ
m al
c ar
Ġhad n
idel ines
ent h
Ġbus y
up id
Ġc ited
P r
Ġth in
Ġsur gery
Ġexp osure
Ġcor ruption
ĠI owa
ĠO regon
pr ise
i el
Ġunus ual
Ġpass es
Ġin ev
Ġminor ity
Ġt or
re f
Ġ4 00
Ġcompet e
v iously
ĠH as
âĢĻ ,
Ġd uty
Ġent it
s he
f all
Ġrec ip
Ġthous and
man n
Ġsy nt
ĠB ull
a a
Ġrec ru
ĠR ay
Ġrare ly
ĠPol icy
Ġtax p
rent ly
ĠBe fore
ĠN avy
Ġengine ering
ist ent
act ive
ĠN orthern
Ġimplement ation
Ġgener ated
ĠK elly
ob s
) )
ĠF ed
ĠCo ast
Ġbrow ser
Ġdisc ipl
Ġvis ible
Ġexpect ations
m aking
og en
Ġve get
Ġfin ance
ĠK ent
ĠZeal and
ig en
Ġprop ag
M L
ath y
Ġshort ly
ĠPhil adelphia
ĠA li
E A
ĠAn th
ĠV is
Ġstr ict
l og
ĠT aylor
ĠW isconsin
Ġevery where
ĠG er
Ġfeel ings
sc ape
Ġun w
ĠLin ux
ĠR ick
Ġscen ario
Ġcamer as
Ġf irms
or ough
th is
te xt
ĠM anchester
Ġen orm
Ġcomput ers
e lect
M ean
il ton
AT E
f ront
Ġper mission
Ġco ordin
Ġparticip ate
og ether
Ġac celer
Ġbeh alf
Ġcontract s
Ġloss es
Ġbl ind
if ies
j a
et ime
c us
ĠAm endment
Ġcy ber
ĠF ood
Ġc rop
Ġt ag
g un
Ġh o
Ġst ations
________ ________
ink ing
ĠO l
n i
Ġair port
Ġl oud
Ġclub s
ĠS af
Ġfe e
ĠM u
Ġaff ili
Ġadvert ising
Ġsh ock
f ound
wh o
Ġsa ved
Ġprior ity
Ġfound ed
um in
Ġun com
re ll
ĠHen ry
Ġth ick
ĠC ome
ĠAs h
ĠGl obal
M ar
B O
c a
ĠP ay
am ber
Ġv en
Ġlight s
Ġestablish ment
Ġrel ief
Ġp ump
im ore
U s
Ġg ained
um er
Ġdo zens
il er
Ġprinc iple
ĠS P
Ġst adium
ĠH T
ĠF red
Ġgen uine
Ġla id
Ġform al
ĠC all
Ġw ing
u er
C ol
ĠS now
Ġob st
Ġcoun sel
am i
at hered
ĠF oot
prof it
Ġcreat es
ĠG reg
b ell
Ġpl ate
ĠKing dom
Ġfoot age
Ġexcept ion
Ġg onna
Ġdo ors
ĠR et
Ġwithd raw
Ġal gorith
Ġr iver
iz on
ĠMc G
Ġh ole
Ġto ler
p read
u ce
el and
ask a
Ġhistor ic
oun ced
7 6
os a
ĠR and
ĠL ive
Ġstri kes
ĠM ajor
ã Ģ
Ġinter face
et ts
Ġphilosoph y
bur gh
Ġb ath
Ġ %
ĠM oh
Ġjournal ist
Be fore
Ġst ab
ĠO ak
op her
ĠL o
ose xual
Ġ4 4
Ġwonder ful
ĠA D
Ġindic ate
ĠJ ac
Ġm el
ĠTh us
ou red
ides pread
f r
Ġf ault
Ġdraw ing
as ion
Ġleg end
Ġsc oring
Ġlangu ages
Ġar range
Ġ19 60
Ġb orrow
Ġlik ed
Ġmag n
l an
ĠR oyal
Ġcont aining
Ġneigh b
Ġbr idge
ĠDevelop ment
ĠAr m
Ġed ition
Ġfound ation
Ġfarm ers
Ġbasket ball
we et
Ġrid ic
r ative
Ġar ray
Ġstrugg ling
Ġst able
Ġnomine e
Ġneut ral
Ġdest ruction
ĠAdminist ration
Ġphot ograph
Ġrecogn ized
Ġprodu cer
Ġun iform
Ġhead ed
ĠH om
Ġmanufact uring
ĠF und
R S
an ing
+ +
ili pp
int erest
ĠPrem ier
H A
Ġ- >
Ġsh arp
ĠHar ry
ĠTh ree
Ġsp ark
epend ent
Ġre ly
Ġban ned
Ġent ering
ar lier
ĠA S
ĠMark et
Ġdin ner
Ġbelief s
Ġstruct ures
Ġdeli ber
U L
u per
Ġro les
Ġh ang
h y
j o
em an
Ġback ed
Ġj u
ul ating
ĠH ard
Ġ5 5
ĠP oint
ĠN ote
Ġf inger
rou s
Ġh ired
ĠAl abama
Ġmove ments
sy lv
C o
Ġinc ent
le te
ol is
ĠK ir
Mean while
ĠB ry
AT O
Ġ199 8
a us
Ġconv icted
Ġg ift
Ġto x
Ġwhe el
rat ors
Ġcomp onent
Ġprofess ion
te en
Ġinterview s
ĠR ose
Ġredu ction
ĠKe y
ĠH it
Ġcann abis
ĠV R
ĠC O
Ġdeli very
ĠN ic
ĠN ob
Ġch a
ĠDie go
ĠO tt
ĠCent re
Ġ201 9
U N
Ġrestrict ions
aw ay
Ġ6 5
ĠAtlant a
p age
Ġo cean
t hen
Ġachie ved
p at
ĠP ack
Ġun ex
Ġfl aw
ach ing
Ġpro ven
ams ung
m ate
ĠRep ort
l ad
Th ose
ĠAcadem y
Ġe uro
Ġ4 7
Ġconv in
Ġsh ips
Ġbr anch
Ġup set
ĠNe xt
P resident
ĠJ ason
ĠTurk ish
Ġbeg un
Ġpro port
Ġprodu cing
ab s
Ġa ver
ĠJud ge
g ener
h o
Ġfore ver
Ġlist ening
âĢĶâĢĶ âĢĶâĢĶ
c ription
Ġhit ting
Ġrac ist
R ef
Ġepis odes
ou ver
ĠCon ference
sylv ania
Ġprocess ing
enn y
4 00
ĠF air
Ġ ?
Ġex ternal
Ġre n
Ġwall s
ĠF ield
ach us
Ġbare ly
Ġdisc rimination
ĠRad io
Ġintellect ual
P C
Ġelect ronic
Ġsuggest ing
Ġut il
Ġrapid ly
Ġro se
sen al
ĠPer haps
Ġchalleng ing
ion e
Ġcont ained
Ġindic ated
Ġcorpor ations
ĠM ir
Ġwebs ites
ĠE SP
Ġw idespread
ĠP en
es ter
8 7
olog ists
ĠMay or
ĠF C
ĠB attle
St ar
ĠEduc ation
ĠMus ic
ĠDiv ision
ĠD id
Ġtechn ique
Ġnorm ally
b ec
ay ing
Ġas ks
ri ers
o en
ĠM id
ik es
ĠAb out
ĠRe view
Ġrepresent ative
ĠRe uters
eng ers
Ġdesc ription
ĠLat in
Ġh ide
us ive
ĠL ittle
ĠSqu are
ĠMcC ain
abin et
P G
Ġwe lf
Ġb ra
Ġsettle ment
ann a
Ġsm ooth
Ġrecogn ition
Ġterror ists
Ġret ired
Ġill ness
Ġtack le
l s
8 5
Ġtick ets
P ost
ol en
M c
Ġg ear
Ġreach ing
ĠN C
Ġredu cing
D av
Ġequ ally
omet hing
Ġprogress ive
i y
Ġj ury
Ġfriend ly
Ġcoll apse
ec ut
Ġwelf are
ĠF urther
Ġexclus ive
ĠBro ther
Ġcampaign s
Ġgr ass
anc ouver
ĠO K
ĠD ig
Ġ4 6
ty pe
Ġb urd
ĠN SA
od ing
Ġnot ion
Ġmind s
