{
  "version": "1.0",
  "truncation": null,
  "padding": null,
  "added_tokens": [
    {
      "id": 0,
      "content": "<unk>",
      "single_word": false,
      "lstrip": false,
      "rstrip": false,
      "normalized": false,
      "special": true
    },
    {
      "id": 1,
      "content": "<s>",
      "single_word": false,
      "lstrip": false,
      "rstrip": false,
      "normalized": false,
      "special": true
    },
    {
      "id": 2,
      "content": "</s>",
      "single_word": false,
      "lstrip": false,
      "rstrip": false,
      "normalized": false,
      "special": true
    }
  ],
  "normalizer": null,
  "pre_tokenizer": {
    "type": "ByteLevel",
    "add_prefix_space": false,
    "trim_offsets": true,
    "use_regex": true
  },
  "post_processor": null,
  "decoder": {
    "type": "ByteLevel",
    "add_prefix_space": true,
    "trim_offsets": true,
    "use_regex": true
  },
  "model": {
    "type": "BPE",
    "dropout": null,
    "unk_token": null,
    "continuing_subword_prefix": null,
    "end_of_word_suffix": null,
    "fuse_unk": false,
    "byte_fallback": false,
    "ignore_merges": false,
    "vocab": {
      "<unk>": 0,
      "<s>": 1,
      "</s>": 2,
      "!": 3,
      "\"": 4,
      "#": 5,
      "$": 6,
      "%": 7,
      "&": 8,
      "'": 9,
      "(": 10,
      ")": 11,
      "*": 12,
      "+": 13,
      ",": 14,
      "-": 15,
      ".": 16,
      "/": 17,
      "0": 18,
      "1": 19,
      "2": 20,
      "3": 21,
      "4": 22,
      "5": 23,
      "6": 24,
      "7": 25,
      "8": 26,
      "9": 27,
      ":": 28,
      ";": 29,
      "<": 30,
      "=": 31,
      ">": 32,
      "?": 33,
      "@": 34,
      "A": 35,
      "B": 36,
      "C": 37,
      "D": 38,
      "E": 39,
      "F": 40,
      "G": 41,
      "H": 42,
      "I": 43,
      "J": 44,
      "K": 45,
      "L": 46,
      "M": 47,
      "N": 48,
      "O": 49,
      "P": 50,
      "Q": 51,
      "R": 52,
      "S": 53,
      "T": 54,
      "U": 55,
      "V": 56,
      "W": 57,
      "X": 58,
      "Y": 59,
      "Z": 60,
      "[": 61,
      "\\": 62,
      "]": 63,
      "^": 64,
      "_": 65,
      "`": 66,
      "a": 67,
      "b": 68,
      "c": 69,
      "d": 70,
      "e": 71,
      "f": 72,
      "g": 73,
      "h": 74,
      "i": 75,
      "j": 76,
      "k": 77,
      "l": 78,
      "m": 79,
      "n": 80,
      "o": 81,
      "p": 82,
      "q": 83,
      "r": 84,
      "s": 85,
      "t": 86,
      "u": 87,
      "v": 88,
      "w": 89,
      "x": 90,
      "y": 91,
      "z": 92,
      "{": 93,
      "|": 94,
      "}": 95,
      "~": 96,
      "¡": 97,
      "¢": 98,
      "£": 99,
      "¤": 100,
      "¥": 101,
      "¦": 102,
      "§": 103,
      "¨": 104,
      "©": 105,
      "ª": 106,
      "«": 107,
      "¬": 108,
      "®": 109,
      "¯": 110,
      "°": 111,
      "±": 112,
      "²": 113,
      "³": 114,
      "´": 115,
      "µ": 116,
      "¶": 117,
      "·": 118,
      "¸": 119,
      "¹": 120,
      "º": 121,
      "»": 122,
      "¼": 123,
      "½": 124,
      "¾": 125,
      "¿": 126,
      "À": 127,
      "Á": 128,
      "Â": 129,
      "Ã": 130,
      "Ä": 131,
      "Å": 132,
      "Æ": 133,
      "Ç": 134,
      "È": 135,
      "É": 136,
      "Ê": 137,
      "Ë": 138,
      "Ì": 139,
      "Í": 140,
      "Î": 141,
      "Ï": 142,
      "Ð": 143,
      "Ñ": 144,
      "Ò": 145,
      "Ó": 146,
      "Ô": 147,
      "Õ": 148,
      "Ö": 149,
      "×": 150,
      "Ø": 151,
      "Ù": 152,
      "Ú": 153,
      "Û": 154,
      "Ü": 155,
      "Ý": 156,
      "Þ": 157,
      "ß": 158,
      "à": 159,
      "á": 160,
      "â": 161,
      "ã": 162,
      "ä": 163,
      "å": 164,
      "æ": 165,
      "ç": 166,
      "è": 167,
      "é": 168,
      "ê": 169,
      "ë": 170,
      "ì": 171,
      "í": 172,
      "î": 173,
      "ï": 174,
      "ð": 175,
      "ñ": 176,
      "ò": 177,
      "ó": 178,
      "ô": 179,
      "õ": 180,
      "ö": 181,
      "÷": 182,
      "ø": 183,
      "ù": 184,
      "ú": 185,
      "û": 186,
      "ü": 187,
      "ý": 188,
      "þ": 189,
      "ÿ": 190,
      "Ā": 191,
      "ā": 192,
      "Ă": 193,
      "ă": 194,
      "Ą": 195,
      "ą": 196,
      "Ć": 197,
      "ć": 198,
      "Ĉ": 199,
      "ĉ": 200,
      "Ċ": 201,
      "ċ": 202,
      "Č": 203,
      "č": 204,
      "Ď": 205,
      "ď": 206,
      "Đ": 207,
      "đ": 208,
      "Ē": 209,
      "ē": 210,
      "Ĕ": 211,
      "ĕ": 212,
      "Ė": 213,
      "ė": 214,
      "Ę": 215,
      "ę": 216,
      "Ě": 217,
      "ě": 218,
      "Ĝ": 219,
      "ĝ": 220,
      "Ğ": 221,
      "ğ": 222,
      "Ġ": 223,
      "ġ": 224,
      "Ģ": 225,
      "ģ": 226,
      "Ĥ": 227,
      "ĥ": 228,
      "Ħ": 229,
      "ħ": 230,
      "Ĩ": 231,
      "ĩ": 232,
      "Ī": 233,
      "ī": 234,
      "Ĭ": 235,
      "ĭ": 236,
      "Į": 237,
      "į": 238,
      "İ": 239,
      "ı": 240,
      "Ĳ": 241,
      "ĳ": 242,
      "Ĵ": 243,
      "ĵ": 244,
      "Ķ": 245,
      "ķ": 246,
      "ĸ": 247,
      "Ĺ": 248,
      "ĺ": 249,
      "Ļ": 250,
      "ļ": 251,
      "Ľ": 252,
      "ľ": 253,
      "Ŀ": 254,
      "ŀ": 255,
      "Ł": 256,
      "ł": 257,
      "Ń": 258,
      "Ġt": 259,
      "Ġa": 260,
      "he": 261,
      "in": 262,
      "re": 263,
      "Ġthe": 264,
      "on": 265,
      "er": 266,
      "Ġs": 267,
      "Ġw": 268,
      "at": 269,
      "Ġo": 270,
      "en": 271,
      "Ġc": 272,
      "it": 273,
      "is": 274,
      "an": 275,
      "or": 276,
      "Ġb": 277,
      "es": 278,
      "ed": 279,
      "Ġf": 280,
      "ing": 281,
      "Ġp": 282,
      "ou": 283,
      "Ġan": 284,
      "al": 285,
      "Ġto": 286,
      "ar": 287,
      "Ġm": 288,
      "Ġin": 289,
      "Ġof": 290,
      "Ġh": 291,
      "Ġd": 292,
      "âĢ": 293,
      "as": 294,
      "ic": 295,
      "Ġand": 296,
      "Ġth": 297,
      "le": 298,
      "om": 299,
      "ion": 300,
      "ll": 301,
      "ent": 302,
      "Ġn": 303,
      "Ġl": 304,
      "Ġre": 305,
      "st": 306,
      "ve": 307,
      "Ġe": 308,
      "ly": 309,
      "ro": 310,
      "Ġbe": 311,
      "Ġg": 312,
      "id": 313,
      "ut": 314,
      "ac": 315,
      "ot": 316,
      "ĠT": 317,
      "ĠI": 318,
      "Ġthat": 319,
      "Ġon": 320,
      "ay": 321,
      "ĠS": 322,
      "Ġis": 323,
      "et": 324,
      "im": 325,
      "am": 326,
      "ad": 327,
      "ow": 328,
      "ig": 329,
      "se": 330,
      "Ġfor": 331,
      "âĢĻ": 332,
      "ĠA": 333,
      "ver": 334,
      "ct": 335,
      "ur": 336,
      "ld": 337,
      "ĠC": 338,
      "Ġu": 339,
      "Ġst": 340,
      "Ġy": 341,
      "Ġit": 342,
      "Ġhe": 343,
      "ir": 344,
      "ation": 345,
      "ith": 346,
      "Ġwh": 347,
      "ĠM": 348,
      "ce": 349,
      "ter": 350,
      "ol": 351,
      "Ġwe": 352,
      "il": 353,
      "Ġwith": 354,
      "Ġas": 355,
      "ĠB": 356,
      "ch": 357,
      "ill": 358,
      "nd": 359,
      "Ġwas": 360,
      "ĠP": 361,
      "ers": 362,
      "Ġyou": 363,
      "ke": 364,
      "ĠâĢ": 365,
      "Ġcon": 366,
      "Ġde": 367,
      "Ġr": 368,
      "her": 369,
      "if": 370,
      "ate": 371,
      "ag": 372,
      "Ġat": 373,
      "ĠW": 374,
      "Ġha": 375,
      "Ġse": 376,
      "ĠH": 377,
      "ore": 378,
      "Ġpro": 379,
      "ul": 380,
      "pp": 381,
      "ment": 382,
      "ri": 383,
      "ĠD": 384,
      "Ġare": 385,
      "est": 386,
      "us": 387,
      "Ġcom": 388,
      "ist": 389,
      "Ġ1": 390,
      "and": 391,
      "ĠR": 392,
      "op": 393,
      "ain": 394,
      "ĠThe": 395,
      "Ġ2": 396,
      "igh": 397,
      "rom": 398,
      "th": 399,
      "Ġ(": 400,
      "od": 401,
      "ĠF": 402,
      "Ġne": 403,
      "um": 404,
      "Ġex": 405,
      "un": 406,
      "res": 407,
      "ab": 408,
      "âĢĿ": 409,
      "Ġnot": 410,
      "ĠN": 411,
      "Ġv": 412,
      "ess": 413,
      "ity": 414,
      "Ġhave": 415,
      "em": 416,
      "ould": 417,
      "Ġor": 418,
      "ort": 419,
      "Ġby": 420,
      "os": 421,
      "ĠG": 422,
      "ant": 423,
      "ive": 424,
      "Ġfrom": 425,
      "Ġal": 426,
      "el": 427,
      "'s": 428,
      "oc": 429,
      "Ġsu": 430,
      "art": 431,
      "ĠL": 432,
      "Ġsh": 433,
      "nt": 434,
      "Ġthis": 435,
      "qu": 436,
      "ight": 437,
      "pe": 438,
      "ust": 439,
      "Ġle": 440,
      "ies": 441,
      "ĠE": 442,
      "end": 443,
      "Ġch": 444,
      "Ġsa": 445,
      "out": 446,
      "Ġab": 447,
      "The": 448,
      "all": 449,
      "ie": 450,
      "ack": 451,
      "00": 452,
      "red": 453,
      "ĠâĢľ": 454,
      "ally": 455,
      "Ġhas": 456,
      "ĠJ": 457,
      "Ġpl": 458,
      "Ġgo": 459,
      "ard": 460,
      "iv": 461,
      "Ġhis": 462,
      "ome": 463,
      "ap": 464,
      "ost": 465,
      "gh": 466,
      "ĠO": 467,
      "ear": 468,
      "Ġtr": 469,
      "our": 470,
      "ast": 471,
      "Ġj": 472,
      "ak": 473,
      "ud": 474,
      "Ġwor": 475,
      "Ġdo": 476,
      "Ġthey": 477,
      "Ġbut": 478,
      "rou": 479,
      "ge": 480,
      "Ġcan": 481,
      "Ġwill": 482,
      "Ġsaid": 483,
      "Ġwhe": 484,
      "ĠU": 485,
      "ich": 486,
      "Ġk": 487,
      "ok": 488,
      "Ġall": 489,
      "Ġ\"": 490,
      "Ġwho": 491,
      "ide": 492,
      "Ġint": 493,
      "ame": 494,
      "ans": 495,
      "ther": 496,
      "ial": 497,
      "Ġout": 498,
      "Ġtheir": 499,
      "ff": 500,
      "ong": 501,
      "ect": 502,
      "ice": 503,
      "pl": 504,
      "ure": 505,
      "pt": 506,
      "age": 507,
      "one": 508,
      "Ġmore": 509,
      "ions": 510,
      "act": 511,
      "ike": 512,
      "Ġme": 513,
      "Ġup": 514,
      "ous": 515,
      "ine": 516,
      "Ġad": 517,
      "Ġabout": 518,
      "ra": 519,
      "ated": 520,
      "ber": 521,
      "Ġwere": 522,
      "Ġone": 523,
      "Ġso": 524,
      "Ġus": 525,
      "og": 526,
      "ime": 527,
      "ep": 528,
      "ĠK": 529,
      "Ġhad": 530,
      "are": 531,
      "ia": 532,
      "ub": 533,
      "cc": 534,
      "Ġwould": 535,
      "Ġ20": 536,
      "Ġcl": 537,
      "Ġwhich": 538,
      "Ġim": 539,
      "ind": 540,
      "ue": 541,
      "ake": 542,
      "iz": 543,
      "Ġcont": 544,
      "Ġag": 545,
      "very": 546,
      "Ġte": 547,
      "Ġoff": 548,
      "Ġcomp": 549,
      "Ġun": 550,
      "Ġbeen": 551,
      "ĠSt": 552,
      "Ġen": 553,
      "so": 554,
      "per": 555,
      "ign": 556,
      "au": 557,
      "ĠTh": 558,
      "ary": 559,
      "ew": 560,
      "ip": 561,
      "ace": 562,
      "Ġyear": 563,
      "Ġlike": 564,
      "ere": 565,
      "ven": 566,
      "ook": 567,
      "Ġinc": 568,
      "ays": 569,
      "Ġpe": 570,
      "Ġman": 571,
      "ry": 572,
      "ose": 573,
      "ite": 574,
      "Ġres": 575,
      "able": 576,
      "Ġper": 577,
      "ass": 578,
      "Ġsp": 579,
      "ord": 580,
      "ĠIn": 581,
      "ire": 582,
      "Ġother": 583,
      "mer": 584,
      "Ġsome": 585,
      "ile": 586,
      "ence": 587,
      "ib": 588,
      "ople": 589,
      "Ġ201": 590,
      "ks": 591,
      "ations": 592,
      "Ġover": 593,
      "ical": 594,
      "Ġthere": 595,
      "ress": 596,
      "ult": 597,
      "Ġdis": 598,
      "int": 599,
      "Ġnew": 600,
      "own": 601,
      "Ġalso": 602,
      "Ġthan": 603,
      "Ġar": 604,
      "Ġbec": 605,
      "ru": 606,
      "Ġthem": 607,
      "ance": 608,
      "ough": 609,
      "ount": 610,
      "Ġapp": 611,
      "port": 612,
      "Ġwhen": 613,
      "ail": 614,
      "Ġpart": 615,
      "Ġyour": 616,
      "ree": 617,
      "Ġwhat": 618,
      "ond": 619,
      "Ġpeople": 620,
      "orm": 621,
      "Ġsc": 622,
      "fter": 623,
      "av": 624,
      "ase": 625,
      "Ġqu": 626,
      "ĠCh": 627,
      "Ġany": 628,
      "Ġjust": 629,
      "ĠY": 630,
      "Ġits": 631,
      "ach": 632,
      "Ġtime": 633,
      "ĠIt": 634,
      "Ġkn": 635,
      "Ġher": 636,
      "Ġrec": 637,
      "lic": 638,
      "ens": 639,
      "reat": 640,
      "Ġget": 641,
      "Ġif": 642,
      "Ġmy": 643,
      "Ġ3": 644,
      "ĠV": 645,
      ".âĢĿ": 646,
      "ian": 647,
      "Ġinto": 648,
      "Ġwork": 649,
      "ound": 650,
      "irst": 651,
      "Ġtw": 652,
      "ction": 653,
      "vel": 654,
      "Ġno": 655,
      "du": 656,
      "ings": 657,
      "ory": 658,
      "ident": 659,
      "ors": 660,
      "ition": 661,
      "Ġour": 662,
      "ick": 663,
      "Ġ-": 664,
      "ob": 665,
      "Ġpre": 666,
      "ang": 667,
      "ove": 668,
      "amp": 669,
      "Ġplay": 670,
      "wn": 671,
      "ink": 672,
      "ause": 673,
      "te": 674,
      "ade": 675,
      "ates": 676,
      "hing": 677,
      "ark": 678,
      "Ġro": 679,
      "Ġpol": 680,
      "Ġshe": 681,
      "vers": 682,
      "Ġco": 683,
      ",âĢĿ": 684,
      "Ġafter": 685,
      "Ġ19": 686,
      "ĠHe": 687,
      "Ġfirst": 688,
      "Ġhow": 689,
      "Ġcould": 690,
      "ne": 691,
      "ious": 692,
      "nder": 693,
      "Ġhim": 694,
      "Ġacc": 695,
      "ild": 696,
      "aw": 697,
      "'t": 698,
      "ons": 699,
      "Ġpo": 700,
      "Ġfe": 701,
      "Ġatt": 702,
      "Ġonly": 703,
      "ict": 704,
      "hed": 705,
      "Ġpr": 706,
      "rit": 707,
      "Ġtwo": 708,
      "ov": 709,
      "ish": 710,
      "Ġcomm": 711,
      "Ġspe": 712,
      "âĢľ": 713,
      "form": 714,
      "Ġact": 715,
      "we": 716,
      "Ġbl": 717,
      "erv": 718,
      "ft": 719,
      "Ġbet": 720,
      ".\"": 721,
      "Ġdec": 722,
      "ning": 723,
      "Ġback": 724,
      "Ġmost": 725,
      "ces": 726,
      "ood": 727,
      "ck": 728,
      "Ġam": 729,
      "ĠâĢĵ": 730,
      "Ġdid": 731,
      "rough": 732,
      "iff": 733,
      "oy": 734,
      "ater": 735,
      "round": 736,
      "Ġagain": 737,
      "ual": 738,
      "Ġdes": 739,
      "Ġwant": 740,
      "ise": 741,
      "Ġunder": 742,
      "day": 743,
      "Ġ4": 744,
      "sel": 745,
      "ull": 746,
      "Ġcons": 747,
      "Ġnow": 748,
      "Ġbecause": 749,
      "ĠâĢĶ": 750,
      "man": 751,
      "lud": 752,
      "Ġ$": 753,
      "Ġyears": 754,
      "tern": 755,
      "ents": 756,
      "ublic": 757,
      "ec": 758,
      "Ġeven": 759,
      "iss": 760,
      "Ġneed": 761,
      "Ġinv": 762,
      "Ġknow": 763,
      "ĠWe": 764,
      "..": 765,
      "Ġsee": 766,
      "ments": 767,
      "ced": 768,
      "Ġadd": 769,
      "ting": 770,
      "Ġind": 771,
      "old": 772,
      "Ġsec": 773,
      ",\"": 774,
      "fore": 775,
      "uch": 776,
      "Ġevery": 777,
      "urn": 778,
      "Ġsupp": 779,
      "Ġ5": 780,
      "pect": 781,
      "Ġmake": 782,
      "ock": 783,
      "ĠUn": 784,
      "Ġthese": 785,
      "Ġem": 786,
      "oll": 787,
      "ject": 788,
      "Ġwhere": 789,
      "In": 790,
      "ational": 791,
      "vern": 792,
      "xt": 793,
      "Ġbu": 794,
      "ump": 795,
      "Th": 796,
      "Ġlook": 797,
      "oss": 798,
      "ĠAnd": 799,
      "Ġdon": 800,
      "Ġev": 801,
      "ating": 802,
      "Ġway": 803,
      "Ġbeing": 804,
      "Ġrem": 805,
      "Ġright": 806,
      "Ġ[": 807,
      "ily": 808,
      "row": 809,
      "ng": 810,
      "Ġmay": 811,
      "lect": 812,
      "Ġthen": 813,
      "ĠTr": 814,
      "Ġmany": 815,
      "Ġcall": 816,
      "Ġdiff": 817,
      "iew": 818,
      "Ġrel": 819,
      "Ġdef": 820,
      "ont": 821,
      "ĠBut": 822,
      "Ġinclud": 823,
      "ased": 824,
      "ason": 825,
      "ied": 826,
      "meric": 827,
      "Ġthink": 828,
      "aking": 829,
      "les": 830,
      "Ġreg": 831,
      ").": 832,
      "Ġimp": 833,
      "rib": 834,
      "ited": 835,
      "ath": 836,
      "Ġthrough": 837,
      "ell": 838,
      "Ġsy": 839,
      "Ġsay": 840,
      "Ġshould": 841,
      "Ġpres": 842,
      "Ġfl": 843,
      "uring": 844,
      "ty": 845,
      "Ġthose": 846,
      "Ġlast": 847,
      "other": 848,
      "Ġshow": 849,
      "Ġvery": 850,
      "Ġmuch": 851,
      "ific": 852,
      "ities": 853,
      "ower": 854,
      "Ġstate": 855,
      "tle": 856,
      "ĠThis": 857,
      "hen": 858,
      "Ġbr": 859,
      "ss": 860,
      "ative": 861,
      "Ġwell": 862,
      "arg": 863,
      "oth": 864,
      "Ġ200": 865,
      "Ġcount": 866,
      "--": 867,
      "und": 868,
      "ĠWh": 869,
      "Ġph": 870,
      "Ġown": 871,
      "Ġdoes": 872,
      "arly": 873,
      "ics": 874,
      "Ġend": 875,
      "als": 876,
      "Ġdown": 877,
      "Ġass": 878,
      "Ġbel": 879,
      "Ġuse": 880,
      "ĠAmeric": 881,
      "ts": 882,
      "ange": 883,
      "Ġlong": 884,
      "ters": 885,
      "ince": 886,
      "gr": 887,
      "Ġbefore": 888,
      "omet": 889,
      "Ġgovern": 890,
      "ward": 891,
      "Ġmon": 892,
      "up": 893,
      "ible": 894,
      "ues": 895,
      "ĠNew": 896,
      "Ġstart": 897,
      "Ġreport": 898,
      "Ġke": 899,
      "ife": 900,
      "ble": 901,
      "Ġfin": 902,
      "Ġmade": 903,
      "ener": 904,
      "Ġteam": 905,
      "olog": 906,
      "),": 907,
      "Ġsuch": 908,
      "ix": 909,
      "ren": 910,
      "âĢĶ": 911,
      "oun": 912,
      "erson": 913,
      "ility": 914,
      "ism": 915,
      "Ġworld": 916,
      "Ġgoing": 917,
      "Ġsm": 918,
      "ful": 919,
      "lp": 920,
      "ually": 921,
      "com": 922,
      "ek": 923,
      "ists": 924,
      "Ġac": 925,
      "Ġstud": 926,
      "tain": 927,
      "Ġgood": 928,
      "It": 929,
      "ork": 930,
      "Ġeff": 931,
      "Ġsub": 932,
      "its": 933,
      "Ġset": 934,
      "Ġagainst": 935,
      "Ġsur": 936,
      "Ġgu": 937,
      "Ġpoint": 938,
      "Ġgame": 939,
      "Ġent": 940,
      "ars": 941,
      "stem": 942,
      "gan": 943,
      "ys": 944,
      "Ġ6": 945,
      "li": 946,
      "roup": 947,
      "Ġprov": 948,
      "Ġstill": 949,
      "illion": 950,
      "Ġwhile": 951,
      "Ġhelp": 952,
      "ax": 953,
      "ween": 954,
      "Ġlead": 955,
      "ef": 956,
      "Ġmin": 957,
      "000": 958,
      "imes": 959,
      "alk": 960,
      "ms": 961,
      "Ġsays": 962,
      "cy": 963,
      "Ġob": 964,
      "ank": 965,
      "Ġprodu": 966,
      "Ġgr": 967,
      "Ġinter": 968,
      "Ġsim": 969,
      "Ġstr": 970,
      "Ġinst": 971,
      "self": 972,
      "cess": 973,
      "Ġconf": 974,
      "Ġcol": 975,
      "io": 976,
      "Ġtake": 977,
      "ures": 978,
      "Ġsame": 979,
      "Ġcr": 980,
      "Ġthough": 981,
      "Ġbetween": 982,
      "Ġoffic": 983,
      "Ġdiffere": 984,
      "ution": 985,
      "uss": 986,
      "ever": 987,
      "ollow": 988,
      "land": 989,
      "Ġdisc": 990,
      "arch": 991,
      "Ġed": 992,
      "ool": 993,
      "air": 994,
      "Ġop": 995,
      "read": 996,
      "Ġhigh": 997,
      "Ġsign": 998,
      "Ġnum": 999,
      "Ġlaw": 1000,
      "ah": 1001,
      "Ġgovernment": 1002,
      "ner": 1003,
      "led": 1004,
      "ĠRe": 1005,
      "way": 1006,
      "gg": 1007,
      "Ġter": 1008,
      "hip": 1009,
      "any": 1010,
      "hes": 1011,
      "atch": 1012,
      "cent": 1013,
      "ames": 1014,
      "Ġref": 1015,
      "Ġsomet": 1016,
      "ted": 1017,
      "ten": 1018,
      "Ġtrans": 1019,
      "velop": 1020,
      "We": 1021,
      "Ġmem": 1022,
      "Ġins": 1023,
      "Ġser": 1024,
      "ives": 1025,
      "Ġrun": 1026,
      "Ġaround": 1027,
      "Ġfound": 1028,
      "Ġthree": 1029,
      "ave": 1030,
      "ather": 1031,
      "Ġmed": 1032,
      "Ġhere": 1033,
      "ouse": 1034,
      "ĠAr": 1035,
      "Ġreal": 1036,
      "ved": 1037,
      "Ġused": 1038,
      "Ġexp": 1039,
      "oot": 1040,
      "Ġsystem": 1041,
      "az": 1042,
      "ci": 1043,
      "ĠYou": 1044,
      "cept": 1045,
      "Ġreally": 1046,
      "Ġgroup": 1047,
      "Ġ10": 1048,
      "ving": 1049,
      "con": 1050,
      "Ġsupport": 1051,
      "ale": 1052,
      "Ġmod": 1053,
      "cer": 1054,
      "Ġcour": 1055,
      ".[": 1056,
      "ets": 1057,
      "Ġret": 1058,
      "Ġpublic": 1059,
      "Ġ7": 1060,
      "Ġspec": 1061,
      "Ġhand": 1062,
      "ĠLe": 1063,
      "ins": 1064,
      "pr": 1065,
      "ying": 1066,
      "Ġgreat": 1067,
      "ĠTrump": 1068,
      "Ġext": 1069,
      "irect": 1070,
      "Ġfam": 1071,
      "ton": 1072,
      "ĠIs": 1073,
      "Ġcar": 1074,
      "ense": 1075,
      "Ġcur": 1076,
      "Ġwom": 1077,
      "ĠCom": 1078,
      "alth": 1079,
      "Ġexper": 1080,
      "Ġfact": 1081,
      "Ġhapp": 1082,
      "ĠThey": 1083,
      "Ġcap": 1084,
      "ph": 1085,
      "Ġboth": 1086,
      "Ġfr": 1087,
      "Ġread": 1088,
      "Ġday": 1089,
      "ĠAl": 1090,
      "ices": 1091,
      "ines": 1092,
      "ular": 1093,
      "Ġfind": 1094,
      "Ġrep": 1095,
      "Ġlit": 1096,
      "uth": 1097,
      "Ġdet": 1098,
      "oh": 1099,
      "Ġduring": 1100,
      "Ġsl": 1101,
      "ĠSh": 1102,
      "ered": 1103,
      "the": 1104,
      "ĠAs": 1105,
      "min": 1106,
      "Ġcre": 1107,
      "Ġserv": 1108,
      "Ġmonth": 1109,
      "Ġbig": 1110,
      "Ġdevelop": 1111,
      "Ġperson": 1112,
      "ision": 1113,
      "ĠCl": 1114,
      "akes": 1115,
      "Ġfollow": 1116,
      "Ġtold": 1117,
      "Ġiss": 1118,
      "Ġsince": 1119,
      "ically": 1120,
      "ages": 1121,
      "ared": 1122,
      "med": 1123,
      "ex": 1124,
      "Ġwar": 1125,
      "ivers": 1126,
      "Ġcent": 1127,
      "Ġweek": 1128,
      "Ġ8": 1129,
      "Ġfew": 1130,
      "ording": 1131,
      "aj": 1132,
      "get": 1133,
      "Ġpolit": 1134,
      "ves": 1135,
      "Ġleg": 1136,
      "Ġexpl": 1137,
      "ash": 1138,
      "Ġgener": 1139,
      "Ġlot": 1140,
      "Ġbelie": 1141,
      "der": 1142,
      "Ġfil": 1143,
      "Ġ0": 1144,
      "ata": 1145,
      "ĠSe": 1146,
      "Ġrequ": 1147,
      "ric": 1148,
      "rent": 1149,
      "Ġtoo": 1150,
      "anc": 1151,
      "iet": 1152,
      "ized": 1153,
      "bers": 1154,
      "Ġcontin": 1155,
      "Ġopp": 1156,
      "Ġprot": 1157,
      "Wh": 1158,
      "Ġ9": 1159,
      "ention": 1160,
      "ness": 1161,
      "Ġput": 1162,
      "Ġinf": 1163,
      "Ġcle": 1164,
      "ĠIf": 1165,
      "Ġanother": 1166,
      "Ġcor": 1167,
      "Ġdifferent": 1168,
      "Ġresp": 1169,
      "ĠDe": 1170,
      "chool": 1171,
      "Ġsomething": 1172,
      "Ġloc": 1173,
      "Ġsoc": 1174,
      "Ġinvest": 1175,
      "ute": 1176,
      "20": 1177,
      "Ġche": 1178,
      "Ġcommun": 1179,
      "ĠFr": 1180,
      "Ġplan": 1181,
      "Ġlife": 1182,
      "Ġrele": 1183,
      "uc": 1184,
      "Ġpass": 1185,
      "ox": 1186,
      "ience": 1187,
      "Ġfar": 1188,
      "Ġpower": 1189,
      "ned": 1190,
      "Ġmet": 1191,
      "Ġthings": 1192,
      "Ġart": 1193,
      "thing": 1194,
      "Ġhead": 1195,
      "Ġposs": 1196,
      "erest": 1197,
      "ody": 1198,
      "ross": 1199,
      "arge": 1200,
      "Ġ'": 1201,
      "Ġcamp": 1202,
      "Ġvot": 1203,
      "Ġdep": 1204,
      "ize": 1205,
      "Ġmight": 1206,
      "This": 1207,
      "ants": 1208,
      "Ġask": 1209,
      "Ġnext": 1210,
      "Ġeach": 1211,
      "iness": 1212,
      "Ġ.": 1213,
      "Ġnever": 1214,
      "view": 1215,
      "ier": 1216,
      "Ġchild": 1217,
      "ik": 1218,
      "Ġsecond": 1219,
      "ĠFor": 1220,
      "Ġadv": 1221,
      "Ġmark": 1222,
      "Ġbus": 1223,
      "Ġdem": 1224,
      "Ġquest": 1225,
      "Ġcome": 1226,
      "ield": 1227,
      "ĠâĢĺ": 1228,
      "ĠAn": 1229,
      "tt": 1230,
      "Ġgot": 1231,
      "ient": 1232,
      "Ġbest": 1233,
      "ital": 1234,
      "ĠThat": 1235,
      "Ġopen": 1236,
      "Ġallow": 1237,
      "Ġpost": 1238,
      "nce": 1239,
      "Ġseem": 1240,
      "ug": 1241,
      "rat": 1242,
      "son": 1243,
      "Ġfeel": 1244,
      "ĠPro": 1245,
      "ple": 1246,
      "Ġpercent": 1247,
      "ĠUS": 1248,
      "gram": 1249,
      "Ġpri": 1250,
      "cl": 1251,
      "Ġdirect": 1252,
      "Ġhome": 1253,
      "Ġincre": 1254,
      "ired": 1255,
      "Ġdist": 1256,
      "orn": 1257,
      "less": 1258,
      "osed": 1259,
      "ĠRep": 1260,
      "Ġcontro": 1261,
      "Ġresult": 1262,
      "Ġhum": 1263,
      "Ġcare": 1264,
      "Ġcomple": 1265,
      "Ġhard": 1266,
      "Ġinform": 1267,
      "Ġimport": 1268,
      "Ġincluding": 1269,
      "ately": 1270,
      "Ġmillion": 1271,
      "Ġplace": 1272,
      "ama": 1273,
      "Ġwithout": 1274,
      "Ġav": 1275,
      "conom": 1276,
      "Ġide": 1277,
      "Ġproble": 1278,
      "chn": 1279,
      "Ġbuild": 1280,
      "gy": 1281,
      "Ġnumber": 1282,
      "oney": 1283,
      "aim": 1284,
      "Ġtop": 1285,
      "Ġcountry": 1286,
      "Ġel": 1287,
      "ral": 1288,
      "riend": 1289,
      "Ġstand": 1290,
      "ĠBl": 1291,
      "uro": 1292,
      "ret": 1293,
      "ably": 1294,
      "ished": 1295,
      "Ġgl": 1296,
      "Ġfour": 1297,
      "Ġpartic": 1298,
      "ways": 1299,
      "co": 1300,
      "Ġmov": 1301,
      "Ġlet": 1302,
      "Ġbetter": 1303,
      "ration": 1304,
      "Ġinterest": 1305,
      "Ġrecent": 1306,
      "Ġtri": 1307,
      "But": 1308,
      "ling": 1309,
      "Ġappro": 1310,
      "Ġlittle": 1311,
      "Ġcalled": 1312,
      "Ġless": 1313,
      "Ġbeh": 1314,
      "Ġturn": 1315,
      "ead": 1316,
      "line": 1317,
      "Ġbro": 1318,
      "Ġseason": 1319,
      "10": 1320,
      "Ġmil": 1321,
      "ised": 1322,
      "Ġcase": 1323,
      "app": 1324,
      "ract": 1325,
      "Ġrest": 1326,
      "__": 1327,
      "ency": 1328,
      "Ġattack": 1329,
      "Ġpop": 1330,
      "Ġann": 1331,
      "Ġdr": 1332,
      "ode": 1333,
      "Ġleft": 1334,
      "ĠInd": 1335,
      "Ġfun": 1336,
      "ĠZ": 1337,
      "ĠThere": 1338,
      "Ġkeep": 1339,
      "ering": 1340,
      "Ġmove": 1341,
      "Ġfull": 1342,
      "inal": 1343,
      "Ġdidn": 1344,
      "ajor": 1345,
      "Ġmain": 1346,
      "ina": 1347,
      "me": 1348,
      "be": 1349,
      "Ġeffect": 1350,
      "Ġusing": 1351,
      "ature": 1352,
      "Ġprev": 1353,
      "Ġtest": 1354,
      "Ġprogram": 1355,
      "leg": 1356,
      "Ġval": 1357,
      "Ġpolice": 1358,
      "Ġear": 1359,
      "Ġpay": 1360,
      "Ġwrit": 1361,
      "to": 1362,
      "Ġform": 1363,
      "ĠAmerican": 1364,
      "Ġeconom": 1365,
      "Ġdata": 1366,
      "Ġchar": 1367,
      "Ġpos": 1368,
      "Ġnews": 1369,
      "Ġsit": 1370,
      "Ġwin": 1371,
      "ains": 1372,
      "ined": 1373,
      "He": 1374,
      "iving": 1375,
      "ready": 1376,
      "Ġsmall": 1377,
      "Ġlevel": 1378,
      "ology": 1379,
      "Ġlist": 1380,
      "Ġschool": 1381,
      "Ġwomen": 1382,
      "uck": 1383,
      "rap": 1384,
      "mit": 1385,
      "ided": 1386,
      "Ġprocess": 1387,
      "ger": 1388,
      "'re": 1389,
      "ird": 1390,
      "reen": 1391,
      "Ġeas": 1392,
      "Ġchange": 1393,
      "ploy": 1394,
      "Ġprom": 1395,
      "ians": 1396,
      "Ġcurrent": 1397,
      "Ġpresident": 1398,
      "Ġhist": 1399,
      "Ġrece": 1400,
      "Ġcompany": 1401,
      "orth": 1402,
      "Ġmat": 1403,
      "used": 1404,
      "ĠSo": 1405,
      "ruct": 1406,
      "ĠUnited": 1407,
      "Ġdri": 1408,
      "Ġalready": 1409,
      "ohn": 1410,
      "ĠOb": 1411,
      "Ġunt": 1412,
      "Ġlater": 1413,
      "Ġ=": 1414,
      "Ġwhy": 1415,
      "Ġty": 1416,
      "Ġmoney": 1417,
      "Ġsol": 1418,
      "Ġbook": 1419,
      "Ġbre": 1420,
      "Ġalways": 1421,
      "ron": 1422,
      "ĠHow": 1423,
      "Ġexpect": 1424,
      "wit": 1425,
      "Ġofficial": 1426,
      "Ġbusiness": 1427,
      "ĠQ": 1428,
      "stand": 1429,
      "Ġtechn": 1430,
      "iversity": 1431,
      "Ġproject": 1432,
      "aign": 1433,
      "Ġthing": 1434,
      "Ġorgan": 1435,
      "Ġinformation": 1436,
      "ĠAd": 1437,
      "Ġclaim": 1438,
      "Ġtalk": 1439,
      "ases": 1440,
      "Ġdesign": 1441,
      "ĠShe": 1442,
      "Ġmajor": 1443,
      "ĠPh": 1444,
      "Ġbo": 1445,
      "Ġclass": 1446,
      "Ġ--": 1447,
      "Ġprof": 1448,
      "Ġchang": 1449,
      "Ġjob": 1450,
      "lection": 1451,
      "ĠBe": 1452,
      "Ġhealth": 1453,
      "iven": 1454,
      "aff": 1455,
      "Ġable": 1456,
      "urs": 1457,
      "Ġstory": 1458,
      "Ġvis": 1459,
      "ertain": 1460,
      "Ġpast": 1461,
      "here": 1462,
      "ards": 1463,
      "outh": 1464,
      "Ġrese": 1465,
      "ĠCan": 1466,
      "Ġoper": 1467,
      "Ġfree": 1468,
      "ption": 1469,
      "Ġmust": 1470,
      "Ġcity": 1471,
      "ural": 1472,
      "Ġaway": 1473,
      "Ġhappen": 1474,
      "ior": 1475,
      "...": 1476,
      "Ġimportant": 1477,
      "Ġpat": 1478,
      "uthor": 1479,
      "ample": 1480,
      "urity": 1481,
      "ury": 1482,
      "Ġkill": 1483,
      "sc": 1484,
      "Ġold": 1485,
      "rist": 1486,
      "ending": 1487,
      "Ġest": 1488,
      "Ġedit": 1489,
      "ured": 1490,
      "Ġsk": 1491,
      "Ġgrow": 1492,
      "acy": 1493,
      "Ġdoesn": 1494,
      "ission": 1495,
      "Ġleast": 1496,
      "Ġcost": 1497,
      "ĠGo": 1498,
      "Ġmen": 1499,
      "Ġvar": 1500,
      "Ġdays": 1501,
      "St": 1502,
      "Ġ18": 1503,
      "ained": 1504,
      "Ġhop": 1505,
      "Ġconst": 1506,
      "Ġtell": 1507,
      "Ġcampaign": 1508,
      "ides": 1509,
      "resident": 1510,
      "side": 1511,
      "Ġstre": 1512,
      "ider": 1513,
      "Ġcame": 1514,
      "ney": 1515,
      "Ġaff": 1516,
      "oad": 1517,
      "ccess": 1518,
      "ern": 1519,
      "els": 1520,
      "Ġtax": 1521,
      "Ġkind": 1522,
      "Ġmaking": 1523,
      "Ġlarge": 1524,
      "Ġenough": 1525,
      "50": 1526,
      "Ġfamily": 1527,
      "ĠMar": 1528,
      "Ġ12": 1529,
      "Ġmar": 1530,
      "ĠSp": 1531,
      "Ġfriend": 1532,
      "Ġrecord": 1533,
      "Ġpolic": 1534,
      "Ġview": 1535,
      "ror": 1536,
      "eral": 1537,
      "ional": 1538,
      "ator": 1539,
      "Ġelect": 1540,
      "ush": 1541,
      "ived": 1542,
      "ley": 1543,
      "Ġuntil": 1544,
      "ality": 1545,
      "pped": 1546,
      "As": 1547,
      "ising": 1548,
      "by": 1549,
      "ified": 1550,
      "Ġdeal": 1551,
      "Ġvide": 1552,
      "Ġpolitical": 1553,
      "âĢ¦": 1554,
      "ries": 1555,
      "----": 1556,
      "alf": 1557,
      "augh": 1558,
      "Ġworking": 1559,
      "Ġtook": 1560,
      "ee": 1561,
      "ued": 1562,
      "19": 1563,
      "Ġfore": 1564,
      "Ġve": 1565,
      "Ġair": 1566,
      "bs": 1567,
      "ĠRepublic": 1568,
      "If": 1569,
      "arent": 1570,
      "Ġintern": 1571,
      "Ġdeb": 1572,
      "ister": 1573,
      "ĠSc": 1574,
      "ĠJohn": 1575,
      "Ġes": 1576,
      "ane": 1577,
      "aining": 1578,
      "Ġline": 1579,
      "iol": 1580,
      "Ġmean": 1581,
      "ocrat": 1582,
      "Ġactually": 1583,
      "Ġbecome": 1584,
      "work": 1585,
      "Ġfund": 1586,
      "ott": 1587,
      "ware": 1588,
      "Ġformer": 1589,
      "ony": 1590,
      "ember": 1591,
      "Ġoften": 1592,
      "aps": 1593,
      "Ġhuman": 1594,
      "ĠEuro": 1595,
      "Ġwon": 1596,
      "Ġgive": 1597,
      "ĠPl": 1598,
      "ann": 1599,
      "Ġaccording": 1600,
      "most": 1601,
      "Ġever": 1602,
      "wh": 1603,
      "Ġreturn": 1604,
      "aring": 1605,
      "11": 1606,
      "ison": 1607,
      "Ġword": 1608,
      "Ġorder": 1609,
      "eng": 1610,
      "year": 1611,
      "oint": 1612,
      "ĠRuss": 1613,
      "Ġname": 1614,
      "Ġbit": 1615,
      "Ġbas": 1616,
      "Ġtimes": 1617,
      "ization": 1618,
      "Ġsever": 1619,
      "gin": 1620,
      "ĠDem": 1621,
      "Ġpar": 1622,
      "Ġdev": 1623,
      "icle": 1624,
      "Ġgames": 1625,
      "Ġnight": 1626,
      "iqu": 1627,
      "ĠSy": 1628,
      "Ġ199": 1629,
      "uture": 1630,
      "Ġcharac": 1631,
      "ĠAll": 1632,
      "ither": 1633,
      "Ġperform": 1634,
      "raft": 1635,
      "ĠOr": 1636,
      "Ġsing": 1637,
      "for": 1638,
      "Ġfac": 1639,
      "ĠMay": 1640,
      "Ġmarket": 1641,
      "ĠMc": 1642,
      "idd": 1643,
      "Ġwr": 1644,
      "ĠAt": 1645,
      "Ġra": 1646,
      "mber": 1647,
      "rop": 1648,
      "ĠCon": 1649,
      "There": 1650,
      "ER": 1651,
      "Ġla": 1652,
      "Ġdoing": 1653,
      "ched": 1654,
      "Ġappear": 1655,
      "Ġlear": 1656,
      "aken": 1657,
      "ats": 1658,
      "Ġearly": 1659,
      "Ġevent": 1660,
      "ĠPresident": 1661,
      "Ġhaving": 1662,
      "Ġseen": 1663,
      "Ġtoday": 1664,
      "Ġsocial": 1665,
      "Ġplayers": 1666,
      "Ġseveral": 1667,
      "Ġcrit": 1668,
      "idence": 1669,
      "Ġmeet": 1670,
      "Ġchildren": 1671,
      "ĠYork": 1672,
      "Ġ15": 1673,
      "ands": 1674,
      "Ġmedia": 1675,
      "artment": 1676,
      "Ġwhether": 1677,
      "ots": 1678,
      "Ġwent": 1679,
      "Ġpress": 1680,
      "Ġsure": 1681,
      "ories": 1682,
      "Ġmembers": 1683,
      "Ġyoung": 1684,
      "br": 1685,
      "Ġcontrol": 1686,
      "iously": 1687,
      "ene": 1688,
      "Ġprop": 1689,
      "Ġfive": 1690,
      "Ġocc": 1691,
      "Ġequ": 1692,
      "une": 1693,
      "Ġwater": 1694,
      "Ġmilit": 1695,
      "ium": 1696,
      "Ġeng": 1697,
      "iver": 1698,
      "Ġquestion": 1699,
      "Ġpot": 1700,
      "Ġlikely": 1701,
      "Ġvers": 1702,
      "sh": 1703,
      "Ġcertain": 1704,
      "ĠMr": 1705,
      "Ġshort": 1706,
      "enn": 1707,
      "Ġexample": 1708,
      "Ġarg": 1709,
      "ĠStates": 1710,
      "Ġinvol": 1711,
      "//": 1712,
      "lf": 1713,
      "Ġdone": 1714,
      "Ġsuccess": 1715,
      "ended": 1716,
      "vert": 1717,
      "ĠEurope": 1718,
      "Ġalong": 1719,
      "Ġdesc": 1720,
      "ĠObama": 1721,
      "Ġmonths": 1722,
      "And": 1723,
      "Ġside": 1724,
      "Ġhour": 1725,
      "Ġ]": 1726,
      "ially": 1727,
      "ĠCol": 1728,
      "ential": 1729,
      "ball": 1730,
      "Ġant": 1731,
      "ague": 1732,
      "Ġsex": 1733,
      "empt": 1734,
      "let": 1735,
      "ĠBr": 1736,
      "Ġwithin": 1737,
      "ubl": 1738,
      "Ġcourse": 1739,
      "nect": 1740,
      "urch": 1741,
      "uff": 1742,
      "ster": 1743,
      "Ġ,": 1744,
      "Ġonce": 1745,
      "ulation": 1746,
      "ĠOn": 1747,
      "12": 1748,
      "Ġfight": 1749,
      "Ġunderstand": 1750,
      "Ġactiv": 1751,
      "Ġamong": 1752,
      "imate": 1753,
      "Ġinvestig": 1754,
      "rew": 1755,
      "Ġpossible": 1756,
      "iting": 1757,
      "Ġconcer": 1758,
      "Ġcho": 1759,
      "Ġfuture": 1760,
      "ones": 1761,
      "ortun": 1762,
      "Ġauthor": 1763,
      "itive": 1764,
      "Ġthought": 1765,
      "ggest": 1766,
      "Ġproblem": 1767,
      "Ġproduct": 1768,
      "Ġmeans": 1769,
      "ailable": 1770,
      "Ġviol": 1771,
      "my": 1772,
      "Ġpriv": 1773,
      "Ġknown": 1774,
      "Ġnon": 1775,
      "oci": 1776,
      "âĢĵ": 1777,
      "Ġcommunity": 1778,
      "ivid": 1779,
      "Ġacross": 1780,
      "Ġhold": 1781,
      "ĠWhen": 1782,
      "ald": 1783,
      "gress": 1784,
      "ourn": 1785,
      "Ġlocal": 1786,
      "inc": 1787,
      "Ġyet": 1788,
      "Ġfail": 1789,
      "Ġ&": 1790,
      "Ġprotect": 1791,
      "ĠCar": 1792,
      "por": 1793,
      "Ġorig": 1794,
      "Ġreason": 1795,
      "ler": 1796,
      "ĠNo": 1797,
      "Ġsuggest": 1798,
      "Ġ11": 1799,
      "Ġmus": 1800,
      "orld": 1801,
      "iber": 1802,
      "not": 1803,
      "book": 1804,
      "Ġasked": 1805,
      "Ġgiven": 1806,
      "Ġmakes": 1807,
      "ederal": 1808,
      "Ġ2016": 1809,
      "aged": 1810,
      "ĠState": 1811,
      "back": 1812,
      "verage": 1813,
      "Ġothers": 1814,
      "You": 1815,
      "Ġstrong": 1816,
      "Ġreported": 1817,
      "Ġi": 1818,
      "Ġvideo": 1819,
      "ĠTe": 1820,
      "ober": 1821,
      "Ġprob": 1822,
      "Ġben": 1823,
      "Ġbelieve": 1824,
      "ances": 1825,
      "Ġgetting": 1826,
      "ĠHouse": 1827,
      "ensive": 1828,
      "Ġident": 1829,
      "Ġca": 1830,
      "iety": 1831,
      "Ġannoun": 1832,
      "ored": 1833,
      "Ġlim": 1834,
      "ĠUniversity": 1835,
      "Ġ30": 1836,
      "Ġlight": 1837,
      "Ġsent": 1838,
      "Ġcut": 1839,
      "iron": 1840,
      "Ġcond": 1841,
      "itions": 1842,
      "ĠChrist": 1843,
      "urther": 1844,
      "30": 1845,
      "Ġnet": 1846,
      "ashing": 1847,
      "ĠCo": 1848,
      "Ġsour": 1849,
      "ams": 1850,
      "rest": 1851,
      "Ġnational": 1852,
      "'ve": 1853,
      "ament": 1854,
      "Ġdeath": 1855,
      ".,": 1856,
      "Ġcreat": 1857,
      "Ġclose": 1858,
      "Ġindust": 1859,
      "For": 1860,
      "ĠX": 1861,
      "Ġland": 1862,
      "Ġstarted": 1863,
      "aster": 1864,
      "use": 1865,
      "Ġavailable": 1866,
      "Ġlove": 1867,
      "ĠDemocrat": 1868,
      "Ġbat": 1869,
      "Ġbased": 1870,
      "ĠCent": 1871,
      "Ġsaf": 1872,
      "Ġlow": 1873,
      "resent": 1874,
      "Ġhig": 1875,
      "ming": 1876,
      "Ġaccount": 1877,
      "Ġhistory": 1878,
      "Ġ#": 1879,
      "Ġfollowing": 1880,
      "utes": 1881,
      "of": 1882,
      "Ġissue": 1883,
      "Ġmom": 1884,
      "ĠMin": 1885,
      "Ġago": 1886,
      "ability": 1887,
      "selves": 1888,
      "rael": 1889,
      "Ġ2015": 1890,
      "orts": 1891,
      "ĠAm": 1892,
      "AT": 1893,
      "Ġcomes": 1894,
      "Ġemploy": 1895,
      "ument": 1896,
      "Ġseries": 1897,
      "Ġidea": 1898,
      "Ġalmost": 1899,
      "ination": 1900,
      "eb": 1901,
      "Ġparty": 1902,
      "Ġtrying": 1903,
      "ĠAmerica": 1904,
      "gether": 1905,
      "uly": 1906,
      "Ġtogether": 1907,
      "reed": 1908,
      "ilar": 1909,
      "Ġaccess": 1910,
      "pro": 1911,
      "Ġfoc": 1912,
      "hers": 1913,
      "ĠFl": 1914,
      "ief": 1915,
      "Ġcommit": 1916,
      "itional": 1917,
      "Ġtrad": 1918,
      "Ġ16": 1919,
      "ring": 1920,
      "Ġpract": 1921,
      "erman": 1922,
      "Ġisn": 1923,
      "though": 1924,
      "ails": 1925,
      "ĠWhat": 1926,
      "erence": 1927,
      "Ġimpro": 1928,
      "Ġclear": 1929,
      "Ġadded": 1930,
      "af": 1931,
      "ĠOne": 1932,
      "Ġrul": 1933,
      "ĠSen": 1934,
      "Ġexperience": 1935,
      "15": 1936,
      "ged": 1937,
      "ustom": 1938,
      "Ġhalf": 1939,
      "rict": 1940,
      "ai": 1941,
      "inton": 1942,
      "Ġlive": 1943,
      "ĠBro": 1944,
      "ividual": 1945,
      "minist": 1946,
      "raw": 1947,
      "Ġfav": 1948,
      "Ġanything": 1949,
      "Ġanal": 1950,
      "Ġhit": 1951,
      "unch": 1952,
      "Ġsix": 1953,
      "ote": 1954,
      "witter": 1955,
      "ograp": 1956,
      "Ġlooking": 1957,
      "IN": 1958,
      "Ġarea": 1959,
      "ĠComm": 1960,
      "Ġsaying": 1961,
      "ĠEx": 1962,
      "Ġcomplete": 1963,
      "Ġmiss": 1964,
      "ĠCanad": 1965,
      "Ġpresent": 1966,
      "Ġ2014": 1967,
      "Ġbill": 1968,
      "aid": 1969,
      "Ġris": 1970,
      "ert": 1971,
      "ators": 1972,
      "cially": 1973,
      "rug": 1974,
      "Ġvict": 1975,
      "uge": 1976,
      "ĠPr": 1977,
      "Ġcourt": 1978,
      "Ġtaken": 1979,
      "Ġbad": 1980,
      "Ġmor": 1981,
      "Ġfilm": 1982,
      "nes": 1983,
      "ien": 1984,
      "ĠEng": 1985,
      "ows": 1986,
      "Ġaut": 1987,
      "ĠWar": 1988,
      "Ġer": 1989,
      "Ġbehind": 1990,
      "oto": 1991,
      "Ġcompet": 1992,
      "ev": 1993,
      "Ġnear": 1994,
      "Ġsecurity": 1995,
      "Ġentire": 1996,
      "osp": 1997,
      "ĠTo": 1998,
      "Ġtry": 1999,
      "Ġproper": 2000,
      "Ġmult": 2001,
      "play": 2002,
      "Ġmilitary": 2003,
      "ĠPol": 2004,
      "Ġtre": 2005,
      "Ġz": 2006,
      "Ġface": 2007,
      "Ġdiscuss": 2008,
      "wards": 2009,
      "ĠDon": 2010,
      "**": 2011,
      "What": 2012,
      "Ġrather": 2013,
      "Ġtot": 2014,
      "Ġindividual": 2015,
      "'m": 2016,
      "Ġmind": 2017,
      "Ġsingle": 2018,
      "sy": 2019,
      "atic": 2020,
      "Ġthreat": 2021,
      "Ġstudy": 2022,
      "Ġpubl": 2023,
      "Ġwanted": 2024,
      "amed": 2025,
      "ĠMan": 2026,
      "ĠAf": 2027,
      "Ġpolicy": 2028,
      "aper": 2029,
      "Ġ14": 2030,
      "irc": 2031,
      "Ġfood": 2032,
      "par": 2033,
      "ĠIsrael": 2034,
      "Ġfall": 2035,
      "ales": 2036,
      "Ġmess": 2037,
      "ĠBrit": 2038,
      "Ġsomeone": 2039,
      "Ġblack": 2040,
      "arm": 2041,
      "ids": 2042,
      "ĠSec": 2043,
      "Ġquick": 2044,
      "ĠNorth": 2045,
      "ttp": 2046,
      "off": 2047,
      "lling": 2048,
      "Ġspecial": 2049,
      "Ġcult": 2050,
      "ris": 2051,
      "Ġsum": 2052,
      "Ġcomb": 2053,
      "On": 2054,
      "Ġredu": 2055,
      "Ġ/": 2056,
      "lement": 2057,
      "Ġcompan": 2058,
      "Ġbring": 2059,
      "ĠÂ": 2060,
      "When": 2061,
      "ply": 2062,
      "olution": 2063,
      "ĠDep": 2064,
      "Ġfoot": 2065,
      "An": 2066,
      "Ġplayer": 2067,
      "Ġattempt": 2068,
      "ON": 2069,
      "Ġtaking": 2070,
      "ĠNational": 2071,
      "dd": 2072,
      "Ġkey": 2073,
      "elt": 2074,
      "ĠGr": 2075,
      "Ġ17": 2076,
      "ify": 2077,
      "icult": 2078,
      "Ġ13": 2079,
      "Ġelse": 2080,
      ".)": 2081,
      "ĠCal": 2082,
      "rote": 2083,
      "viron": 2084,
      "ĠBar": 2085,
      "Ġbody": 2086,
      "ashington": 2087,
      "ĠWorld": 2088,
      "Ġ:": 2089,
      "Ġnothing": 2090,
      "ĠIm": 2091,
      "Ġconnect": 2092,
      "over": 2093,
      "Ġfront": 2094,
      "Ġcou": 2095,
      "Ġspace": 2096,
      "ĠClinton": 2097,
      "Ġcoming": 2098,
      "16": 2099,
      "Ġprobably": 2100,
      "ĠCity": 2101,
      "Ġsw": 2102,
      "Ġhowever": 2103,
      "Ġsimilar": 2104,
      "Ġpret": 2105,
      "Ġdescrib": 2106,
      "cing": 2107,
      "IS": 2108,
      "Ġresearch": 2109,
      "Ġjo": 2110,
      "Ġ|": 2111,
      "ches": 2112,
      "RE": 2113,
      "Ġbenef": 2114,
      "reme": 2115,
      "yn": 2116,
      "go": 2117,
      "ĠHar": 2118,
      "Ġexist": 2119,
      "Ġsignific": 2120,
      "Ġmass": 2121,
      "Ġpoints": 2122,
      "lier": 2123,
      "ault": 2124,
      "aces": 2125,
      "ĠAust": 2126,
      "://": 2127,
      "Ġdecision": 2128,
      "Ġconv": 2129,
      "Ġsus": 2130,
      "Ġrights": 2131,
      "ĠSu": 2132,
      "ww": 2133,
      "ully": 2134,
      "So": 2135,
      "Ġenc": 2136,
      "That": 2137,
      "mb": 2138,
      "Ġcoun": 2139,
      "Ġeither": 2140,
      "Ġfeat": 2141,
      "Ġtarg": 2142,
      "Ġhouse": 2143,
      "14": 2144,
      "Ġban": 2145,
      "rodu": 2146,
      "irl": 2147,
      "Ġwrote": 2148,
      "asing": 2149,
      "Ġchall": 2150,
      "ana": 2151,
      "Ġimm": 2152,
      "sw": 2153,
      "ung": 2154,
      "Ġservice": 2155,
      "Ġdoc": 2156,
      "Ġfurther": 2157,
      "Ġthird": 2158,
      "Ġfire": 2159,
      "Ġcreate": 2160,
      "Ġissues": 2161,
      "Ġfig": 2162,
      "Ġcompl": 2163,
      "ively": 2164,
      "Ġrepl": 2165,
      "Ġbegin": 2166,
      "Ġrelations": 2167,
      "Ġwa": 2168,
      "Ġwhole": 2169,
      "ried": 2170,
      "Ġsuper": 2171,
      "Ġ2013": 2172,
      "ape": 2173,
      "ran": 2174,
      "AN": 2175,
      "ĠWith": 2176,
      "Ġstop": 2177,
      "Ġstep": 2178,
      "Ġfield": 2179,
      "Ġcand": 2180,
      "Ġeverything": 2181,
      "Ġexec": 2182,
      "ĠApp": 2183,
      "pping": 2184,
      "ently": 2185,
      "ĠJan": 2186,
      "aul": 2187,
      "Ġfederal": 2188,
      "now": 2189,
      "pecially": 2190,
      "Ġtra": 2191,
      "Ġroom": 2192,
      "Ã©": 2193,
      "Ġseems": 2194,
      "ĠGe": 2195,
      "ĠGu": 2196,
      "Ġcompanies": 2197,
      "Ġself": 2198,
      "ĠWashington": 2199,
      "pite": 2200,
      "13": 2201,
      "Ġinfl": 2202,
      "Ġmeas": 2203,
      "Ġdue": 2204,
      "Ġreleased": 2205,
      "Ġwatch": 2206,
      "uation": 2207,
      "Ġrole": 2208,
      "ilt": 2209,
      "Ġpick": 2210,
      "Ġstates": 2211,
      "ĠHowever": 2212,
      "Ch": 2213,
      "ibility": 2214,
      "Ġstri": 2215,
      "att": 2216,
      "Ġcustom": 2217,
      "Ġbegan": 2218,
      "Ġofficials": 2219,
      "Ġsound": 2220,
      "Ġdam": 2221,
      "iday": 2222,
      "Ġey": 2223,
      "Ġlab": 2224,
      "amer": 2225,
      "ivil": 2226,
      "Ġleaders": 2227,
      "ĠDav": 2228,
      "Ġcharacter": 2229,
      "ĠSouth": 2230,
      "Ġstudents": 2231,
      "Ġener": 2232,
      "sec": 2233,
      "Ġmatter": 2234,
      "oon": 2235,
      "head": 2236,
      "ery": 2237,
      "eal": 2238,
      "Ġposition": 2239,
      "Ġtreat": 2240,
      "ades": 2241,
      "obal": 2242,
      "Ġopt": 2243,
      "iod": 2244,
      "Ġhimself": 2245,
      "Ġstatement": 2246,
      "Ġoutside": 2247,
      "lim": 2248,
      "Ġdevelopment": 2249,
      "Ġfinal": 2250,
      "ĠInst": 2251,
      "Ġinit": 2252,
      "Ġ2012": 2253,
      "Ġ198": 2254,
      "like": 2255,
      "Ġstat": 2256,
      "Ġbecame": 2257,
      "Ġprovide": 2258,
      "Ġdou": 2259,
      "ender": 2260,
      "vironment": 2261,
      "Ġrepresent": 2262,
      "Ġhours": 2263,
      "Ġitself": 2264,
      "Ġamount": 2265,
      "Ġbreak": 2266,
      "Ġoffice": 2267,
      "ĠIntern": 2268,
      "Ġgeneral": 2269,
      "ĠPart": 2270,
      "Ġcontinue": 2271,
      "Ġabove": 2272,
      "Ġcountries": 2273,
      "Ġ2017": 2274,
      "Ġthemselves": 2275,
      "Ġspecific": 2276,
      "Ġaction": 2277,
      "aced": 2278,
      "Ġ25": 2279,
      "Ġaddress": 2280,
      "reg": 2281,
      "ogle": 2282,
      "Ġlarg": 2283,
      "lish": 2284,
      "Ġgun": 2285,
      "Ġneg": 2286,
      "Ġinterview": 2287,
      "Ġtrue": 2288,
      "Ġ100": 2289,
      "ask": 2290,
      "Ġwasn": 2291,
      "Ġsignificant": 2292,
      "ĠAss": 2293,
      "Ġsimply": 2294,
      "Ġground": 2295,
      "ogn": 2296,
      "Ġ)": 2297,
      "acebook": 2298,
      "umb": 2299,
      "ograph": 2300,
      "'ll": 2301,
      "angu": 2302,
      "ĠGerman": 2303,
      "Ġevidence": 2304,
      "Ġadminist": 2305,
      "Ġbar": 2306,
      "Ġdi": 2307,
      "Ġversion": 2308,
      "ĠJust": 2309,
      "Ġdifficult": 2310,
      "Ġprofess": 2311,
      "Ġagree": 2312,
      "ĠEd": 2313,
      "ream": 2314,
      "ĠRes": 2315,
      "ili": 2316,
      "Ġrunning": 2317,
      "Ġgroups": 2318,
      "Ġbuilding": 2319,
      "Ġdom": 2320,
      "BC": 2321,
      "Ġrad": 2322,
      "eks": 2323,
      "Ġtem": 2324,
      "Ġtyp": 2325,
      "oid": 2326,
      "ĠMed": 2327,
      "17": 2328,
      "arter": 2329,
      "ĠChina": 2330,
      "iddle": 2331,
      "Ġcop": 2332,
      "Ġwoman": 2333,
      "Ġneeded": 2334,
      "Ġdrug": 2335,
      "Ġmusic": 2336,
      "Ġshows": 2337,
      "Ġneeds": 2338,
      "Ġcommon": 2339,
      "Ġeveryone": 2340,
      "Ġrelease": 2341,
      "Ġdest": 2342,
      "Ġinj": 2343,
      "Ġlat": 2344,
      "ift": 2345,
      "Ġdeep": 2346,
      "Ġsaw": 2347,
      "light": 2348,
      "Ġball": 2349,
      "Ġexc": 2350,
      "right": 2351,
      "Ġrespons": 2352,
      "ournal": 2353,
      "Ġinclude": 2354,
      "Ġbelow": 2355,
      "lam": 2356,
      "ribut": 2357,
      "Ġindustry": 2358,
      "Ġmag": 2359,
      "Ġenergy": 2360,
      "Ġpretty": 2361,
      "ĠHis": 2362,
      "Ġmot": 2363,
      "Ġwhite": 2364,
      "yle": 2365,
      "Ġgen": 2366,
      "Ġcandid": 2367,
      "18": 2368,
      "Ġplayed": 2369,
      "Ġquite": 2370,
      "Ġap": 2371,
      "Ġphys": 2372,
      "AR": 2373,
      "ĠAfter": 2374,
      "ĠWest": 2375,
      "Ġfriends": 2376,
      "body": 2377,
      "Ġlate": 2378,
      "ival": 2379,
      "ĠAb": 2380,
      "atur": 2381,
      "isc": 2382,
      "Ġbillion": 2383,
      "Ġsense": 2384,
      "Ġplaying": 2385,
      "Ġcharg": 2386,
      "Ġalleg": 2387,
      "Ġlegal": 2388,
      "How": 2389,
      "Ġlost": 2390,
      "Ġhom": 2391,
      "AS": 2392,
      "Ġ50": 2393,
      "Ġespecially": 2394,
      "where": 2395,
      "Ġple": 2396,
      "Ġabs": 2397,
      "____": 2398,
      "Ġvalue": 2399,
      "Ġinstead": 2400,
      "ĠMus": 2401,
      "Ġred": 2402,
      "time": 2403,
      "Ġhost": 2404,
      "Ġobject": 2405,
      "ccording": 2406,
      "epend": 2407,
      "ager": 2408,
      "oring": 2409,
      "Ġperiod": 2410,
      "osing": 2411,
      "Ġchanges": 2412,
      "ĠNews": 2413,
      "Ġelection": 2414,
      "lev": 2415,
      "Ġanim": 2416,
      "Ġrecently": 2417,
      "Ġ{": 2418,
      "Ġsuff": 2419,
      "omm": 2420,
      "irt": 2421,
      "istic": 2422,
      "Ġweeks": 2423,
      "Ġjud": 2424,
      "Ġsite": 2425,
      "bo": 2426,
      "lt": 2427,
      "Ġforward": 2428,
      "Ġtrack": 2429,
      "ĠNot": 2430,
      "ique": 2431,
      "Ġlo": 2432,
      "hod": 2433,
      "ĠWhite": 2434,
      "ĠTwitter": 2435,
      "medi": 2436,
      "Ġvote": 2437,
      "ached": 2438,
      "Ġdeter": 2439,
      "Ġpain": 2440,
      "ĠOct": 2441,
      "Ġlonger": 2442,
      "ĠCong": 2443,
      "Ġopportun": 2444,
      "eed": 2445,
      "Ġaccept": 2446,
      "oe": 2447,
      "arc": 2448,
      "Ġhope": 2449,
      "oke": 2450,
      "Ġblock": 2451,
      "Ġmoment": 2452,
      "Ġeconomic": 2453,
      "ĠWill": 2454,
      "Ġsoon": 2455,
      "Ġep": 2456,
      "Ġdecl": 2457,
      "irm": 2458,
      "Ġshoot": 2459,
      "ript": 2460,
      "oph": 2461,
      "Ġtit": 2462,
      "ĠMy": 2463,
      "ĠDepartment": 2464,
      "Ġpie": 2465,
      "ij": 2466,
      "Ġcred": 2467,
      "Ġrelig": 2468,
      "ancial": 2469,
      "duct": 2470,
      "Ġcirc": 2471,
      "Ġwrong": 2472,
      "Ġshare": 2473,
      "ns": 2474,
      "Ġworks": 2475,
      "ners": 2476,
      "Ġonline": 2477,
      "Ġhigher": 2478,
      "cial": 2479,
      "Ġwebs": 2480,
      "ĠMarch": 2481,
      "Ġconsider": 2482,
      "Ġpotential": 2483,
      "Ġconsum": 2484,
      "Ġfocus": 2485,
      "Ġcheck": 2486,
      "lear": 2487,
      "ole": 2488,
      "Ġeduc": 2489,
      "key": 2490,
      "alt": 2491,
      "icro": 2492,
      "Ġheld": 2493,
      "overed": 2494,
      "ĠSept": 2495,
      "ĠDr": 2496,
      "ularly": 2497,
      "Ġ24": 2498,
      "Ġwords": 2499,
      "Ġpred": 2500,
      "iding": 2501,
      "Ġcode": 2502,
      "Ġminutes": 2503,
      "25": 2504,
      "Ġfunction": 2505,
      "onse": 2506,
      "Ġled": 2507,
      "Ġwalk": 2508,
      "Ġservices": 2509,
      "lege": 2510,
      "Ġce": 2511,
      "Ġstay": 2512,
      "Ġapplic": 2513,
      "Ġrev": 2514,
      "Ġstru": 2515,
      "Ġresults": 2516,
      "ĠThese": 2517,
      "Ġreve": 2518,
      "They": 2519,
      "ĠJune": 2520,
      "Ġwind": 2521,
      "Ġparent": 2522,
      "Ġlaws": 2523,
      "cil": 2524,
      "ĠRepublican": 2525,
      "uary": 2526,
      "ĠAug": 2527,
      "ĠSyri": 2528,
      "Ġaud": 2529,
      "urd": 2530,
      "ĠMe": 2531,
      "aut": 2532,
      "Ġsold": 2533,
      "ilities": 2534,
      "Ġanyone": 2535,
      "Ġfavor": 2536,
      "Ġtotal": 2537,
      "Ġarticle": 2538,
      "ients": 2539,
      "Ġage": 2540,
      "Ġprim": 2541,
      "put": 2542,
      "ÂŃ": 2543,
      "Ġ<": 2544,
      "fect": 2545,
      "Ad": 2546,
      "ateg": 2547,
      "Ġrisk": 2548,
      "Ġcomput": 2549,
      "ĠMich": 2550,
      "Al": 2551,
      "asons": 2552,
      "Ġpersonal": 2553,
      "fer": 2554,
      "Ġreview": 2555,
      "Ġcontract": 2556,
      "ĠPe": 2557,
      "itution": 2558,
      "Ġupd": 2559,
      "val": 2560,
      "ES": 2561,
      "ule": 2562,
      "ham": 2563,
      "anger": 2564,
      "haps": 2565,
      "Ġvol": 2566,
      "Ġtarget": 2567,
      "Ġpopular": 2568,
      "Ġansw": 2569,
      "Ġexpress": 2570,
      "==": 2571,
      "apan": 2572,
      "pril": 2573,
      "ray": 2574,
      "Ġden": 2575,
      "Ġhy": 2576,
      "Ġnecess": 2577,
      "Ġ2011": 2578,
      "Ġearlier": 2579,
      "aging": 2580,
      "Ġgoal": 2581,
      "ĠDo": 2582,
      "Ġproblems": 2583,
      "Ġrate": 2584,
      "Ġrespect": 2585,
      "Ġdead": 2586,
      "Ph": 2587,
      "uel": 2588,
      "Ġreceived": 2589,
      "che": 2590,
      "ends": 2591,
      "Ġport": 2592,
      "Ġenvironment": 2593,
      "ĠPar": 2594,
      "Ġcreated": 2595,
      "ĠSte": 2596,
      "Ġexpected": 2597,
      "tee": 2598,
      "Ġbase": 2599,
      "Ġtechnology": 2600,
      "Ġincrease": 2601,
      "Ġways": 2602,
      "reet": 2603,
      "Ġlangu": 2604,
      "ĠCongress": 2605,
      "Ġ+": 2606,
      "ude": 2607,
      "Ġcomment": 2608,
      "Ġscient": 2609,
      "Ġsurpr": 2610,
      "iple": 2611,
      "ĠGod": 2612,
      "ĠJuly": 2613,
      "isl": 2614,
      "bit": 2615,
      "Ġanti": 2616,
      "Ġprivate": 2617,
      "Ġpack": 2618,
      "Ġforce": 2619,
      "action": 2620,
      "Ġshot": 2621,
      "ĠSm": 2622,
      "Ġquestions": 2623,
      "Ġcannot": 2624,
      "Ġannounced": 2625,
      "hern": 2626,
      "aving": 2627,
      "ĠFacebook": 2628,
      "Ġspeak": 2629,
      "Ġpur": 2630,
      "Ġeasy": 2631,
      "ĠMond": 2632,
      "Ġterror": 2633,
      "onst": 2634,
      "Ġimpact": 2635,
      "atives": 2636,
      "eter": 2637,
      "na": 2638,
      "Ġinvolved": 2639,
      "aterial": 2640,
      "hood": 2641,
      "ples": 2642,
      "Ġdiv": 2643,
      "ctor": 2644,
      "ills": 2645,
      "lex": 2646,
      "Ġexecut": 2647,
      "ĠEn": 2648,
      "ĠAustral": 2649,
      "Ġet": 2650,
      "itiz": 2651,
      "Ġsen": 2652,
      "Ġnearly": 2653,
      "rem": 2654,
      "Ġ197": 2655,
      "ourt": 2656,
      "Ġexact": 2657,
      "Ġrelationship": 2658,
      "ĠGoogle": 2659,
      "60": 2660,
      "ires": 2661,
      "Ġcontent": 2662,
      "Ġmodel": 2663,
      "okes": 2664,
      "omb": 2665,
      "Ġcivil": 2666,
      "ees": 2667,
      "uesday": 2668,
      "Ġstaff": 2669,
      "ĠFriday": 2670,
      "ech": 2671,
      "ellig": 2672,
      "Ġoriginal": 2673,
      "Ġleave": 2674,
      "Ġcases": 2675,
      "Ġtype": 2676,
      "Ġcapt": 2677,
      "cast": 2678,
      "Ġinside": 2679,
      "Ġinternational": 2680,
      "Ġ2010": 2681,
      "ĠApril": 2682,
      "To": 2683,
      "rel": 2684,
      "ĠPal": 2685,
      "atural": 2686,
      "Ġcell": 2687,
      "Ġcoll": 2688,
      "Ġbroad": 2689,
      "Ġworked": 2690,
      "Ġarrest": 2691,
      "Ġfans": 2692,
      "Ġreports": 2693,
      "Ġphot": 2694,
      "Ġkilled": 2695,
      "Ġclub": 2696,
      "bor": 2697,
      "lled": 2698,
      "EN": 2699,
      "At": 2700,
      "Ġaverage": 2701,
      "Ġliving": 2702,
      "ĠNe": 2703,
      "Ġsoft": 2704,
      "Ġbecom": 2705,
      "ĠRed": 2706,
      "Ġcal": 2707,
      "Ġresponse": 2708,
      "Ġheart": 2709,
      "ĠMonday": 2710,
      "ging": 2711,
      "ĠAmericans": 2712,
      "Ġrespond": 2713,
      "Ġur": 2714,
      "Ġusers": 2715,
      "Ġnation": 2716,
      "Ġchance": 2717,
      "Ġimmedi": 2718,
      "Ġsubject": 2719,
      "Ġestab": 2720,
      "ĠEm": 2721,
      "ky": 2722,
      "OR": 2723,
      "Ġworth": 2724,
      "Ġtakes": 2725,
      "ĠCount": 2726,
      "hel": 2727,
      "Ġobs": 2728,
      "joy": 2729,
      "ips": 2730,
      "ĠAct": 2731,
      "ests": 2732,
      "rought": 2733,
      "Ġdirector": 2734,
      "Ġglobal": 2735,
      "ĠTuesday": 2736,
      "ael": 2737,
      "Ġterms": 2738,
      "Ġassoci": 2739,
      "ĠJapan": 2740,
      "Ġcollect": 2741,
      "ises": 2742,
      "ĠPer": 2743,
      "ops": 2744,
      "Ġsource": 2745,
      "Ġdel": 2746,
      "Ġprice": 2747,
      "ites": 2748,
      "Ġfinancial": 2749,
      "ovember": 2750,
      "ãģ": 2751,
      "rain": 2752,
      "ological": 2753,
      "Ġ@": 2754,
      "Ġability": 2755,
      "Ġmother": 2756,
      "Ġdefin": 2757,
      "izing": 2758,
      "ĠRussia": 2759,
      "Ġworkers": 2760,
      "Ġpublished": 2761,
      "Ġstore": 2762,
      "\".": 2763,
      "osition": 2764,
      "ĠWhile": 2765,
      "Ġdecided": 2766,
      "Ġmid": 2767,
      "Ġroad": 2768,
      "Ġemer": 2769,
      "Ġgave": 2770,
      "mon": 2771,
      "Ġsqu": 2772,
      "Ġhappened": 2773,
      "Ġinflu": 2774,
      "Ġtou": 2775,
      "ĠWed": 2776,
      "Ġbuy": 2777,
      "Ġweap": 2778,
      "ĠSome": 2779,
      "Ġphone": 2780,
      "ĠNow": 2781,
      "Ġlack": 2782,
      "unt": 2783,
      "Ġoil": 2784,
      "ĠCalif": 2785,
      "Ġforeign": 2786,
      "Ġ40": 2787,
      "vertise": 2788,
      "Ġrequire": 2789,
      "Ġmember": 2790,
      "Ġcapital": 2791,
      "clus": 2792,
      "oved": 2793,
      "rown": 2794,
      "Ġlives": 2795,
      "Ġwhose": 2796,
      "Ġlog": 2797,
      "ĠOff": 2798,
      "Ġgirl": 2799,
      "Ġcurrently": 2800,
      "Ġaffect": 2801,
      "Ġindic": 2802,
      "ino": 2803,
      "ĠGeor": 2804,
      "Ġfem": 2805,
      "based": 2806,
      "rect": 2807,
      "ought": 2808,
      "Ġmethod": 2809,
      "ĠJanuary": 2810,
      "\",": 2811,
      "Ġtal": 2812,
      "Ġgoes": 2813,
      "Ġsituation": 2814,
      "Ġoffer": 2815,
      "Ġmeeting": 2816,
      "ruction": 2817,
      "Ġnetwork": 2818,
      "ĠFeb": 2819,
      "ĠSan": 2820,
      "Ġparticip": 2821,
      "ĠSund": 2822,
      "Ġplans": 2823,
      "Ġbank": 2824,
      "Ġarri": 2825,
      "Ġmaterial": 2826,
      "Ġcy": 2827,
      "load": 2828,
      "oud": 2829,
      "ĠBy": 2830,
      "Ġturned": 2831,
      "ursday": 2832,
      "Ġpict": 2833,
      "One": 2834,
      "ĠHill": 2835,
      "40": 2836,
      "apt": 2837,
      "Ġrecogn": 2838,
      "nesday": 2839,
      "Ġteams": 2840,
      "fully": 2841,
      "Ġintrodu": 2842,
      "lin": 2843,
      "ĠAg": 2844,
      "Ġregard": 2845,
      "Ġsimple": 2846,
      "ese": 2847,
      "Ġnorm": 2848,
      "Ġpage": 2849,
      "ĠNovember": 2850,
      "order": 2851,
      "Ġevents": 2852,
      "Ġhuge": 2853,
      "aur": 2854,
      "Ġill": 2855,
      "Ġperformance": 2856,
      "ĠCor": 2857,
      "Ġareas": 2858,
      "Ġadministration": 2859,
      "Ġfelt": 2860,
      "ĠSeptember": 2861,
      "ĠAfric": 2862,
      "Ġcouple": 2863,
      "Ġapproach": 2864,
      "ĠTV": 2865,
      "--------": 2866,
      "ety": 2867,
      "Ġcareer": 2868,
      "Ġord": 2869,
      "Ġdeli": 2870,
      "ĠIslam": 2871,
      "ĠGl": 2872,
      "Ġhon": 2873,
      "Ġmis": 2874,
      "Ġtool": 2875,
      "bl": 2876,
      "Ġemail": 2877,
      "Ġvictim": 2878,
      "ume": 2879,
      "oor": 2880,
      "Ġvia": 2881,
      "iment": 2882,
      "Ġimprove": 2883,
      "Ġfre": 2884,
      "Ġquickly": 2885,
      "ructure": 2886,
      "Ġ21": 2887,
      "ĠPaul": 2888,
      "Ġpull": 2889,
      "Ġengine": 2890,
      "ĠDavid": 2891,
      "Ġnumbers": 2892,
      "Ġfather": 2893,
      "ĠEuropean": 2894,
      "Ġbuilt": 2895,
      "avy": 2896,
      "Ġrace": 2897,
      "ĠWednesday": 2898,
      "chie": 2899,
      "Ġround": 2900,
      "ĠThursday": 2901,
      "Ġdig": 2902,
      "aily": 2903,
      "Ġpers": 2904,
      "ornia": 2905,
      "ĠAng": 2906,
      "ĠCourt": 2907,
      "ened": 2908,
      "Ġheard": 2909,
      "Ġwebsite": 2910,
      "Ġmatch": 2911,
      "Ġthous": 2912,
      "Ġsecret": 2913,
      "Ġtown": 2914,
      "âĢĿ.": 2915,
      "Ġloss": 2916,
      "Ġspent": 2917,
      "Ġhttp": 2918,
      "Ġboy": 2919,
      "cember": 2920,
      ");": 2921,
      "Ġeconomy": 2922,
      "Ġneigh": 2923,
      "Ġtext": 2924,
      "ĠSch": 2925,
      "Ġwants": 2926,
      "Ġrepe": 2927,
      "Ġlower": 2928,
      "Ġenjoy": 2929,
      "uses": 2930,
      "Ġ22": 2931,
      "ĠAugust": 2932,
      "Ġproduction": 2933,
      "Ġwide": 2934,
      "Ġcover": 2935,
      "ĠOctober": 2936,
      "AL": 2937,
      "istan": 2938,
      "Ġpoll": 2939,
      "Ġincluded": 2940,
      "ights": 2941,
      "ctions": 2942,
      "Ġhands": 2943,
      "][": 2944,
      "With": 2945,
      "Ġtravel": 2946,
      "iction": 2947,
      "face": 2948,
      "Ġknew": 2949,
      "Ġtrade": 2950,
      "Ġlegisl": 2951,
      "Ġallowed": 2952,
      "Ġste": 2953,
      "Sh": 2954,
      "ĠCanada": 2955,
      "atory": 2956,
      "99": 2957,
      "Ġreveal": 2958,
      "Ġbehav": 2959,
      "down": 2960,
      "Ġvisit": 2961,
      "Ġtried": 2962,
      "Ġsepar": 2963,
      "orters": 2964,
      "ences": 2965,
      "ĠEl": 2966,
      "Ġboard": 2967,
      "Ġcause": 2968,
      "Ġbi": 2969,
      "Ġgets": 2970,
      "ze": 2971,
      "?âĢĿ": 2972,
      "ĠSunday": 2973,
      "estern": 2974,
      "Ġfear": 2975,
      "gest": 2976,
      "Ġattention": 2977,
      "ĠBritish": 2978,
      "ishing": 2979,
      "After": 2980,
      "Ġperfect": 2981,
      "Ġvo": 2982,
      "ession": 2983,
      "ground": 2984,
      "Ġveh": 2985,
      "Ġgrowth": 2986,
      "anks": 2987,
      "Ġparticular": 2988,
      "cle": 2989,
      "200": 2990,
      "Ġ}": 2991,
      "Ġforces": 2992,
      "Ġmovement": 2993,
      "Ġbrought": 2994,
      "force": 2995,
      "ibly": 2996,
      "Ġens": 2997,
      "Ġlooks": 2998,
      "uk": 2999,
      "hold": 3000,
      "Ġreach": 3001,
      "Ġsize": 3002,
      "agement": 3003,
      "ĠUK": 3004,
      "ĠKore": 3005,
      "Ġlink": 3006,
      "arily": 3007,
      "ening": 3008,
      "Re": 3009,
      "ceed": 3010,
      "Ġvarious": 3011,
      "ĠCalifornia": 3012,
      "Ġbud": 3013,
      "idered": 3014,
      "ĠRussian": 3015,
      "Ġsong": 3016,
      "iam": 3017,
      "ĠSw": 3018,
      "urning": 3019,
      "idents": 3020,
      "Ġpopulation": 3021,
      "alled": 3022,
      "Ġrac": 3023,
      "ĠQu": 3024,
      "'d": 3025,
      "AC": 3026,
      "Ġprevious": 3027,
      "ma": 3028,
      "ĠDecember": 3029,
      "Ġcontact": 3030,
      "ĠIS": 3031,
      "Ġmention": 3032,
      "aker": 3033,
      "cies": 3034,
      "undred": 3035,
      "Ġmorning": 3036,
      "Ġfair": 3037,
      "Ġrules": 3038,
      "ĠPost": 3039,
      "Ġfell": 3040,
      "Ġdemand": 3041,
      "Ġprogress": 3042,
      "sequ": 3043,
      "yond": 3044,
      "Ġliber": 3045,
      "set": 3046,
      "While": 3047,
      "Ġ23": 3048,
      "come": 3049,
      "Ġhot": 3050,
      "field": 3051,
      "Ġtraining": 3052,
      "ĠHer": 3053,
      "ĠCont": 3054,
      "raz": 3055,
      "Ġhor": 3056,
      "fl": 3057,
      "Ġleader": 3058,
      "ledge": 3059,
      "Ġcitiz": 3060,
      "omp": 3061,
      "Ġindepend": 3062,
      "24": 3063,
      "elligence": 3064,
      "oo": 3065,
      "inks": 3066,
      "ecause": 3067,
      "ED": 3068,
      "US": 3069,
      "Ġimage": 3070,
      "ĠTimes": 3071,
      "Ġess": 3072,
      "raq": 3073,
      "Ġlatest": 3074,
      "ĠStreet": 3075,
      "ĠBlack": 3076,
      "ĠPat": 3077,
      "uments": 3078,
      "ĠJew": 3079,
      "ification": 3080,
      "arth": 3081,
      "Ġlanguage": 3082,
      "IT": 3083,
      "Ġconsidered": 3084,
      "Ġtalking": 3085,
      "ondon": 3086,
      "Ġprep": 3087,
      "Ġstrugg": 3088,
      "Ġsearch": 3089,
      "Ġmedical": 3090,
      "Ġstar": 3091,
      "de": 3092,
      "iant": 3093,
      "Ġcoach": 3094,
      "Ġupon": 3095,
      "aph": 3096,
      "Tr": 3097,
      "Ġfeatures": 3098,
      "vent": 3099,
      "ges": 3100,
      "Ġaddition": 3101,
      "ĠPark": 3102,
      "Ġspeed": 3103,
      "Ġfast": 3104,
      "Ġwond": 3105,
      "OS": 3106,
      "Ġexam": 3107,
      "ĠParty": 3108,
      "bed": 3109,
      "aries": 3110,
      "icles": 3111,
      "ha": 3112,
      "Ġund": 3113,
      "Ġ2008": 3114,
      "imately": 3115,
      "ĠKing": 3116,
      "Ġinvestigation": 3117,
      "Ġdoll": 3118,
      "ĠCenter": 3119,
      "ĠSenate": 3120,
      "Ġsystems": 3121,
      "Ġsort": 3122,
      "pir": 3123,
      "Ġreb": 3124,
      "sych": 3125,
      "aturday": 3126,
      "eth": 3127,
      "Ġslow": 3128,
      "Ġconduct": 3129,
      "Ġachie": 3130,
      "Ġcritic": 3131,
      "ille": 3132,
      "Ġbox": 3133,
      "imin": 3134,
      "Ġmach": 3135,
      "IC": 3136,
      "Ġlevels": 3137,
      "ps": 3138,
      "ĠIran": 3139,
      "Ġpaper": 3140,
      "ope": 3141,
      "uit": 3142,
      "Ġsn": 3143,
      "eared": 3144,
      "Ġâ": 3145,
      "ysis": 3146,
      "Ġwritten": 3147,
      "wo": 3148,
      "Ġconserv": 3149,
      "80": 3150,
      "Ġprior": 3151,
      "Ġdraw": 3152,
      "ĠIndia": 3153,
      "Ġ2009": 3154,
      "idge": 3155,
      "ĠCounty": 3156,
      "Ġhear": 3157,
      "het": 3158,
      "king": 3159,
      "Ġpen": 3160,
      "Ġprevent": 3161,
      "uf": 3162,
      "asc": 3163,
      "Ġincreasing": 3164,
      "ĠIraq": 3165,
      "igr": 3166,
      "Ġextreme": 3167,
      "ruary": 3168,
      "Ġsexual": 3169,
      "Ġson": 3170,
      "Ġdocument": 3171,
      "Ġjobs": 3172,
      "Ġspokes": 3173,
      "ĠMark": 3174,
      "tr": 3175,
      "Ġsens": 3176,
      "ĠMuslim": 3177,
      "ani": 3178,
      "Ġparents": 3179,
      "Ġscreen": 3180,
      "Ġseven": 3181,
      "Ġsafe": 3182,
      "Ġcard": 3183,
      "reedom": 3184,
      "Ġeffort": 3185,
      "atform": 3186,
      "Ġlearn": 3187,
      "room": 3188,
      "Ġserious": 3189,
      "Ġregul": 3190,
      "ĠTex": 3191,
      "Ġinn": 3192,
      "ett": 3193,
      "Ġcompletely": 3194,
      "itch": 3195,
      "rast": 3196,
      "ĠDonald": 3197,
      "ining": 3198,
      "ico": 3199,
      "ext": 3200,
      "Ġsurve": 3201,
      "Ġrange": 3202,
      "Ġeight": 3203,
      "Ġclaims": 3204,
      "Ġinteresting": 3205,
      "Ġsociety": 3206,
      "ĠRom": 3207,
      "Ġmajority": 3208,
      "Ġdoub": 3209,
      "eff": 3210,
      "Ġviolence": 3211,
      "Ġmessage": 3212,
      "Ġconc": 3213,
      "rench": 3214,
      "OP": 3215,
      "vertisement": 3216,
      "Ġrequired": 3217,
      "Ġattacks": 3218,
      "ĠChar": 3219,
      "Ġdespite": 3220,
      "anced": 3221,
      "Ġparticularly": 3222,
      "Ġobv": 3223,
      "She": 3224,
      "Ġopportunity": 3225,
      "ĠLondon": 3226,
      "ources": 3227,
      "unk": 3228,
      "Ġnatural": 3229,
      "Ġextra": 3230,
      "Ġanswer": 3231,
      "Ġexperien": 3232,
      "Ġguy": 3233,
      "aming": 3234,
      "22": 3235,
      "uclear": 3236,
      "ĠKe": 3237,
      "Ġofficers": 3238,
      "Ġpaid": 3239,
      "Ġscience": 3240,
      "ension": 3241,
      "mp": 3242,
      "Ġjournal": 3243,
      "abor": 3244,
      "Ġbiggest": 3245,
      "Ġcross": 3246,
      "Ġmodern": 3247,
      "inese": 3248,
      "Ġexactly": 3249,
      "illed": 3250,
      "ĠEast": 3251,
      "ibr": 3252,
      "Ġcarry": 3253,
      "erve": 3254,
      "AM": 3255,
      "inally": 3256,
      "entially": 3257,
      "ĠMore": 3258,
      "Ġhundred": 3259,
      "Ġdro": 3260,
      "Ġclimate": 3261,
      "Ġexcept": 3262,
      "oses": 3263,
      "Ġmovie": 3264,
      "Ġaren": 3265,
      "Ġstories": 3266,
      "ĠNet": 3267,
      "ny": 3268,
      "Ġpractice": 3269,
      "lying": 3270,
      "pper": 3271,
      "nces": 3272,
      "ux": 3273,
      "Ġremain": 3274,
      "Ġsurv": 3275,
      "ari": 3276,
      "Ġmiddle": 3277,
      "Ġcertainly": 3278,
      "isions": 3279,
      "ĠSaturday": 3280,
      "Ġdefense": 3281,
      "Ġdescribed": 3282,
      "add": 3283,
      "Ġgas": 3284,
      "Ġproducts": 3285,
      "Ġsometimes": 3286,
      "Ġconvers": 3287,
      "Ġlay": 3288,
      "Ġcommunic": 3289,
      "iers": 3290,
      "Ġterm": 3291,
      "Ġprison": 3292,
      "Ġlooked": 3293,
      "utions": 3294,
      "Ġstuff": 3295,
      "Ġ...": 3296,
      "hib": 3297,
      "Ġshowed": 3298,
      "ospital": 3299,
      "Ġaw": 3300,
      "aves": 3301,
      "Ġult": 3302,
      "Ġuser": 3303,
      "ously": 3304,
      "Ġ27": 3305,
      "ĠFebruary": 3306,
      "Ġhistor": 3307,
      "Ġquarter": 3308,
      "Ġrout": 3309,
      "Ġfinally": 3310,
      "Ġoccur": 3311,
      "ĠSand": 3312,
      "Ġimag": 3313,
      "Ġcosts": 3314,
      "uing": 3315,
      "Ġleading": 3316,
      "Ġblood": 3317,
      "ĠInt": 3318,
      "ĠChe": 3319,
      "Ġchanged": 3320,
      "Ġones": 3321,
      "Ġquality": 3322,
      "Ġnamed": 3323,
      "Ġsummer": 3324,
      "Ġdetails": 3325,
      "Ġremains": 3326,
      "Ġtable": 3327,
      "akers": 3328,
      "aught": 3329,
      "ĠSpe": 3330,
      "Ġpath": 3331,
      "Ġpan": 3332,
      "Ġ*": 3333,
      "Ġgiving": 3334,
      "ĠSoc": 3335,
      "ĠTH": 3336,
      "Ġstarting": 3337,
      "FL": 3338,
      "Ġeducation": 3339,
      "Ġprovided": 3340,
      "enge": 3341,
      "Ġpoor": 3342,
      "erc": 3343,
      "Ġregion": 3344,
      "Ġdanger": 3345,
      "coin": 3346,
      "ida": 3347,
      "Ġwriting": 3348,
      "arr": 3349,
      "Ġchief": 3350,
      "Ġdemonst": 3351,
      "inary": 3352,
      "Ġdamage": 3353,
      "Ġthinking": 3354,
      "Ġcomments": 3355,
      "Ġmultiple": 3356,
      "Ġmob": 3357,
      "Ġcontinued": 3358,
      "ĠMcC": 3359,
      "Ġpurp": 3360,
      "icks": 3361,
      "Ġfit": 3362,
      "Ġparts": 3363,
      "Ġgrowing": 3364,
      "Ġmaintain": 3365,
      "ĠTur": 3366,
      "Ġment": 3367,
      "Ġdied": 3368,
      "ĠGener": 3369,
      "Ġ>": 3370,
      "Ġpurch": 3371,
      "ĠDemocratic": 3372,
      "ĠMor": 3373,
      "ĠRepublicans": 3374,
      "yl": 3375,
      "Ġfix": 3376,
      "23": 3377,
      "ĠLeague": 3378,
      "No": 3379,
      "Ġassist": 3380,
      "Ġrequest": 3381,
      "iminal": 3382,
      "pre": 3383,
      "ĠEven": 3384,
      "Ġreading": 3385,
      "Ġwouldn": 3386,
      "Ġmill": 3387,
      "mitted": 3388,
      "ban": 3389,
      "Ġculture": 3390,
      "Ġwrite": 3391,
      "zz": 3392,
      "Ġefforts": 3393,
      "Ġcalls": 3394,
      "Ġhous": 3395,
      "oper": 3396,
      "Ġready": 3397,
      "Ġincreased": 3398,
      "fort": 3399,
      "ems": 3400,
      "ĠCoun": 3401,
      "ago": 3402,
      "Ġimplement": 3403,
      "Ġspot": 3404,
      "Ġcele": 3405,
      "Ġeffects": 3406,
      "ĠBill": 3407,
      "Ġperhaps": 3408,
      "Ġvoters": 3409,
      "Ġ26": 3410,
      "Ġ28": 3411,
      "ables": 3412,
      "arian": 3413,
      "Ġalthough": 3414,
      "Ġfootball": 3415,
      "Ġdirectly": 3416,
      "oul": 3417,
      "Im": 3418,
      "Ġstandard": 3419,
      "Ġreality": 3420,
      "Ġcomplex": 3421,
      "ĠFirst": 3422,
      "icated": 3423,
      "Ġspeech": 3424,
      "Ġguys": 3425,
      "using": 3426,
      "aly": 3427,
      "ĠChinese": 3428,
      "Ġkids": 3429,
      "ĠDes": 3430,
      "Ġusually": 3431,
      "Ġalone": 3432,
      "Ġavoid": 3433,
      "Ġtowards": 3434,
      "Ġbeyond": 3435,
      "BI": 3436,
      "Ġver": 3437,
      "Ġconsist": 3438,
      "Ġplatform": 3439,
      "Ġcenter": 3440,
      "rowd": 3441,
      "Ġincludes": 3442,
      "Ġcamer": 3443,
      "sp": 3444,
      "Ġstudent": 3445,
      "Ġfile": 3446,
      "ara": 3447,
      "Ġcouldn": 3448,
      "Ġtro": 3449,
      "itute": 3450,
      "Ġchoice": 3451,
      "Ġscene": 3452,
      "ĠBo": 3453,
      "Ġselect": 3454,
      "urg": 3455,
      "anch": 3456,
      "egr": 3457,
      "Ġthroughout": 3458,
      "Ġchalleng": 3459,
      "Ġsubst": 3460,
      "Ġimmediately": 3461,
      "ĠMichael": 3462,
      "Ġunf": 3463,
      "ĠJames": 3464,
      "ĠTexas": 3465,
      "Ġrecomm": 3466,
      "Ġrob": 3467,
      "ĠJack": 3468,
      "ĠApple": 3469,
      "Ġconcept": 3470,
      "Ġadditional": 3471,
      "Ġremember": 3472,
      "Ġclos": 3473,
      "Ġbrain": 3474,
      "ĠSer": 3475,
      "iles": 3476,
      "Ġdesigned": 3477,
      "Ġcat": 3478,
      "agon": 3479,
      "Ġwife": 3480,
      "ĠCons": 3481,
      "itor": 3482,
      "Ġ(@": 3483,
      "ston": 3484,
      "wise": 3485,
      "Ġagency": 3486,
      "urt": 3487,
      "Ġsle": 3488,
      "Ġsoftware": 3489,
      "Ġresearc": 3490,
      "ford": 3491,
      "icient": 3492,
      "Ġil": 3493,
      "All": 3494,
      "Ġtoward": 3495,
      "Ġten": 3496,
      "Ġgone": 3497,
      "Ġdebate": 3498,
      "Ġsafety": 3499,
      "Ġcorpor": 3500,
      "imum": 3501,
      "rupt": 3502,
      "ĠâĢ¦": 3503,
      "amb": 3504,
      "Ġblog": 3505,
      "ĠIndian": 3506,
      "Ġepis": 3507,
      "Ġmoved": 3508,
      "ĠMinister": 3509,
      "irth": 3510,
      "Ġfigure": 3511,
      "Ġrelative": 3512,
      "hest": 3513,
      "Ġopin": 3514,
      "Ġofficer": 3515,
      "Ġletter": 3516,
      "aches": 3517,
      "astic": 3518,
      "omen": 3519,
      "atever": 3520,
      "Ġdog": 3521,
      "Ġstage": 3522,
      "Ġpressure": 3523,
      "Ġpiece": 3524,
      "ression": 3525,
      "Ġpassed": 3526,
      "ĠMon": 3527,
      "Ġcast": 3528,
      "ilies": 3529,
      "Ġreceive": 3530,
      "men": 3531,
      "ampions": 3532,
      "berg": 3533,
      "Now": 3534,
      "Ġ60": 3535,
      "Ġoption": 3536,
      "Ġthousands": 3537,
      "ĠGreen": 3538,
      "ĠII": 3539,
      "Ġcounter": 3540,
      "Ġsil": 3541,
      "Ġswe": 3542,
      "Ġahead": 3543,
      "Ġbattle": 3544,
      "Ġprec": 3545,
      "Ġut": 3546,
      "OT": 3547,
      "new": 3548,
      "airs": 3549,
      "Ġmeaning": 3550,
      "Ġproperty": 3551,
      "Ġlaunch": 3552,
      "roy": 3553,
      "adem": 3554,
      "Ġdisapp": 3555,
      "Ġdrive": 3556,
      "ĠSuper": 3557,
      "itation": 3558,
      "ĠServ": 3559,
      "Ġcris": 3560,
      "Ġclean": 3561,
      "oes": 3562,
      "Ġsuspect": 3563,
      "olute": 3564,
      "Ġnom": 3565,
      "Ġalleged": 3566,
      "Ġappears": 3567,
      "Ġsell": 3568,
      "Ġscore": 3569,
      "ports": 3570,
      "Ġdark": 3571,
      "Ġhelped": 3572,
      "ĠThen": 3573,
      "Ġrock": 3574,
      "ĠAssoci": 3575,
      "Ġnuclear": 3576,
      "Ġdate": 3577,
      "Ġconditions": 3578,
      "wood": 3579,
      "just": 3580,
      "Ġsat": 3581,
      "Ġcharacters": 3582,
      "Ġign": 3583,
      "Ġreasons": 3584,
      "Ġnature": 3585,
      "Ġorganization": 3586,
      "ĠRich": 3587,
      "ĠDemocrats": 3588,
      "Ġdeg": 3589,
      "ĠSim": 3590,
      "Ġbudget": 3591,
      "Ġcomputer": 3592,
      "Ġtour": 3593,
      "Ġbeginning": 3594,
      "27": 3595,
      "lease": 3596,
      "Ġdifference": 3597,
      "aughter": 3598,
      "rief": 3599,
      "Ġfan": 3600,
      "ĠPlay": 3601,
      "Ġmoving": 3602,
      "Ġdevice": 3603,
      "Ġencour": 3604,
      "Ġcentury": 3605,
      "AD": 3606,
      "Ġfailed": 3607,
      "Ġmyself": 3608,
      "ĠEnglish": 3609,
      "Ġtwe": 3610,
      "?\"": 3611,
      "Ġrefer": 3612,
      "ĠStar": 3613,
      "more": 3614,
      "Ġpark": 3615,
      "Ġaim": 3616,
      "Ġtouch": 3617,
      "Ġbooks": 3618,
      "Ġmaybe": 3619,
      "Ġtitle": 3620,
      "Ġx": 3621,
      "Ġhappy": 3622,
      "Ġcompared": 3623,
      "ĠMart": 3624,
      "....": 3625,
      "chan": 3626,
      "Ġcommand": 3627,
      "ĠRober": 3628,
      "cient": 3629,
      "Ġshown": 3630,
      "ocked": 3631,
      "yan": 3632,
      "Ġcopy": 3633,
      "Ġestim": 3634,
      "ĠFrench": 3635,
      "Ġleague": 3636,
      "ivity": 3637,
      "Ġband": 3638,
      "!!": 3639,
      "Ġwall": 3640,
      "Ġtrust": 3641,
      "Ġstra": 3642,
      "Ġcandidate": 3643,
      "ĠTor": 3644,
      "Ġsche": 3645,
      "Ġspending": 3646,
      "AP": 3647,
      "etro": 3648,
      "Ġbal": 3649,
      "Ġeyes": 3650,
      "Ġconference": 3651,
      "Ġcontribut": 3652,
      "45": 3653,
      "Ġpositive": 3654,
      "Ġnecessary": 3655,
      "Ġcitizens": 3656,
      "Ġpresidential": 3657,
      "ĠHere": 3658,
      "Ġeventually": 3659,
      "venue": 3660,
      "Ġcool": 3661,
      "Ġpowerful": 3662,
      "Ġcollege": 3663,
      "ĠVal": 3664,
      "Ġschools": 3665,
      "igration": 3666,
      "Ġanalysis": 3667,
      "orks": 3668,
      "Ġlimited": 3669,
      "enty": 3670,
      "Ġ196": 3671,
      "Ġarch": 3672,
      "Ġdisp": 3673,
      "ĠBen": 3674,
      "Ġnote": 3675,
      "35": 3676,
      "Ġexecutive": 3677,
      "Ġcorrect": 3678,
      "Ġlargest": 3679,
      "orney": 3680,
      "Ġmeant": 3681,
      "My": 3682,
      "Ġfollowed": 3683,
      "ĠSyria": 3684,
      "Ġyes": 3685,
      "EC": 3686,
      "Ġcrowd": 3687,
      "Ġsal": 3688,
      "Ġmix": 3689,
      "Ġfeed": 3690,
      "Ġforced": 3691,
      "ource": 3692,
      "ufact": 3693,
      "ĠDay": 3694,
      "Ġfeature": 3695,
      "Ġaware": 3696,
      "aint": 3697,
      "Ġhar": 3698,
      "Ġtreatment": 3699,
      "ĠAir": 3700,
      "Ġreligious": 3701,
      "aud": 3702,
      "Ġfirm": 3703,
      "ressed": 3704,
      "New": 3705,
      "Ġallows": 3706,
      "Ġstreng": 3707,
      "Ġconfir": 3708,
      "Ġautom": 3709,
      "26": 3710,
      "Ġbott": 3711,
      "Ġfamilies": 3712,
      "ĠÂ£": 3713,
      "ares": 3714,
      "ĠOf": 3715,
      "Is": 3716,
      "Ġilleg": 3717,
      "Be": 3718,
      "ken": 3719,
      "Ġthrow": 3720,
      "band": 3721,
      "Ġappeared": 3722,
      "Ġeasily": 3723,
      "Ġesc": 3724,
      "ero": 3725,
      "Ġyourself": 3726,
      "Ġpus": 3727,
      "ĠWind": 3728,
      "ID": 3729,
      "encies": 3730,
      "craft": 3731,
      "Ġactions": 3732,
      "Ġgrad": 3733,
      "Ġgives": 3734,
      "By": 3735,
      "Ġphysical": 3736,
      "Ġ29": 3737,
      "Advertisement": 3738,
      "Ġfrequ": 3739,
      "ĠDis": 3740,
      "iring": 3741,
      "Ġdetail": 3742,
      "ĠBel": 3743,
      "ĠGovern": 3744,
      "Ġpolitics": 3745,
      "Ġang": 3746,
      "rated": 3747,
      "Ġcentral": 3748,
      "cul": 3749,
      "Ġincome": 3750,
      "Ġdecades": 3751,
      "ube": 3752,
      "Ġsenior": 3753,
      "Ġsusp": 3754,
      "Ġideas": 3755,
      "Ġcredit": 3756,
      "Ġdraft": 3757,
      "ĠBre": 3758,
      "iny": 3759,
      "Ġsmart": 3760,
      "Ġunique": 3761,
      "Ġoverall": 3762,
      "Ġsigned": 3763,
      "ĠMex": 3764,
      "bum": 3765,
      "Ġcrime": 3766,
      "Ġpromot": 3767,
      "Ġintelligence": 3768,
      "ĠCap": 3769,
      "Ġanaly": 3770,
      "inn": 3771,
      "Ġcrisis": 3772,
      "IA": 3773,
      "Ġuses": 3774,
      "Ġdisplay": 3775,
      "ĠGermany": 3776,
      "ĠInternational": 3777,
      "Ġdise": 3778,
      "Ġrap": 3779,
      "Ġbenefits": 3780,
      "Ġdeveloped": 3781,
      "According": 3782,
      "board": 3783,
      "Ġnice": 3784,
      "Ġcharge": 3785,
      "iable": 3786,
      "Ġweapons": 3787,
      "Ġlif": 3788,
      "nown": 3789,
      "Ġmist": 3790,
      "ĠJer": 3791,
      "itely": 3792,
      "riage": 3793,
      "urance": 3794,
      "Ġdoor": 3795,
      "ĠArab": 3796,
      "Don": 3797,
      "ĠEU": 3798,
      "Ġtruth": 3799,
      "Ġrule": 3800,
      "net": 3801,
      "ĠSchool": 3802,
      "Ġaltern": 3803,
      "uty": 3804,
      "Ġindividuals": 3805,
      "Ġnoted": 3806,
      "ĠAustralia": 3807,
      "Ġconflic": 3808,
      "ĠAngel": 3809,
      "Ġrates": 3810,
      "ET": 3811,
      "Ġpredict": 3812,
      "Ar": 3813,
      "resh": 3814,
      "Ġcustomers": 3815,
      "ĠPolice": 3816,
      "Ġgoals": 3817,
      "Ġfully": 3818,
      "Ġsales": 3819,
      "Ġchallenge": 3820,
      "Ġpsych": 3821,
      "part": 3822,
      "Ġapparent": 3823,
      "28": 3824,
      "Ġprojects": 3825,
      "OM": 3826,
      "change": 3827,
      "Ġcontinues": 3828,
      "onents": 3829,
      "mar": 3830,
      "Ġdrop": 3831,
      "Ġreform": 3832,
      "):": 3833,
      "ĠEarth": 3834,
      "Ġpreviously": 3835,
      "Ġlarger": 3836,
      "ĠÐ": 3837,
      "ĠGeorge": 3838,
      "21": 3839,
      "erved": 3840,
      "Ġbeaut": 3841,
      "Ġrelated": 3842,
      "box": 3843,
      "Ġadvant": 3844,
      "ĠUnion": 3845,
      "ser": 3846,
      "Ġreached": 3847,
      "Ġmanager": 3848,
      "Ġseemed": 3849,
      "Ġcriminal": 3850,
      "oti": 3851,
      "29": 3852,
      "Ġsto": 3853,
      "Ġbrother": 3854,
      "Ġincident": 3855,
      "Pro": 3856,
      "Ġlic": 3857,
      "Ġstraight": 3858,
      "Ġspir": 3859,
      "ĠFranc": 3860,
      "owers": 3861,
      "Ġprimary": 3862,
      "Ġsuccessful": 3863,
      "Some": 3864,
      "iders": 3865,
      "iance": 3866,
      "Ġfavorite": 3867,
      "Ġpeace": 3868,
      "ĠChristian": 3869,
      "secut": 3870,
      "Ġemb": 3871,
      "ĠTom": 3872,
      "Ġexpand": 3873,
      "orter": 3874,
      "Ġlines": 3875,
      "bon": 3876,
      "Ġspread": 3877,
      "Ġclearly": 3878,
      "ĠComp": 3879,
      "ĠCouncil": 3880,
      "Ġprograms": 3881,
      "Ġhighly": 3882,
      "ĠHigh": 3883,
      "Ġminor": 3884,
      "olic": 3885,
      "Ġattract": 3886,
      "Ġmeasure": 3887,
      "ategy": 3888,
      "while": 3889,
      "ĠHam": 3890,
      "ĠInternet": 3891,
      "attle": 3892,
      "inated": 3893,
      "Ġknowledge": 3894,
      "Ġsave": 3895,
      "Ġgreater": 3896,
      "ounds": 3897,
      "antly": 3898,
      "Ġtraff": 3899,
      "ĠCr": 3900,
      "sey": 3901,
      "ĠSmith": 3902,
      "Ġemot": 3903,
      "Ġkept": 3904,
      "Un": 3905,
      "Ġrare": 3906,
      "icit": 3907,
      "que": 3908,
      "ĠAnt": 3909,
      "usion": 3910,
      "ĠUp": 3911,
      "ĠRec": 3912,
      "ean": 3913,
      "dom": 3914,
      "osh": 3915,
      "ĠBer": 3916,
      "Ġplaces": 3917,
      "Ġrise": 3918,
      "ĠMac": 3919,
      "Ġresources": 3920,
      "Ġweb": 3921,
      "ki": 3922,
      "Ġregular": 3923,
      "Ġstudies": 3924,
      "ĠBrown": 3925,
      "ĠFlor": 3926,
      "Ġvoice": 3927,
      "ĠGeneral": 3928,
      "ota": 3929,
      "ocks": 3930,
      "Ġarm": 3931,
      "iced": 3932,
      "Ġ2007": 3933,
      "Ġactivity": 3934,
      "vere": 3935,
      "100": 3936,
      "oday": 3937,
      "ĠDef": 3938,
      "Ġshooting": 3939,
      "Ġsources": 3940,
      "term": 3941,
      "wide": 3942,
      "Ġprem": 3943,
      "Ġfine": 3944,
      "Ġowners": 3945,
      "Ġfeet": 3946,
      "Ġknows": 3947,
      "Ġcities": 3948,
      "Ġfighting": 3949,
      "rs": 3950,
      "ĠLa": 3951,
      "Ġsend": 3952,
      "Ġnormal": 3953,
      "Ġorganiz": 3954,
      "Ġmanufact": 3955,
      "Ġcalling": 3956,
      "icago": 3957,
      "Ġstatus": 3958,
      "ville": 3959,
      "Ġliter": 3960,
      "Ġcaused": 3961,
      "Ġspend": 3962,
      "levision": 3963,
      "Ġclaimed": 3964,
      "ado": 3965,
      "miss": 3966,
      "Ġlaun": 3967,
      "Ġintegr": 3968,
      "Ġoptions": 3969,
      "70": 3970,
      "iled": 3971,
      "Ġcolor": 3972,
      "www": 3973,
      "roll": 3974,
      "Ġpolicies": 3975,
      "itness": 3976,
      "EO": 3977,
      "Ġreflect": 3978,
      "ING": 3979,
      "onent": 3980,
      "oles": 3981,
      "Ġshut": 3982,
      "ĠEngland": 3983,
      ".âĢĻ": 3984,
      "Ġhaven": 3985,
      "ĠEvery": 3986,
      "ength": 3987,
      "ĠRob": 3988,
      "Ġadding": 3989,
      "org": 3990,
      "inger": 3991,
      "Not": 3992,
      "Ġpun": 3993,
      "ĠFrom": 3994,
      "Ġresearchers": 3995,
      "mission": 3996,
      "Ġprint": 3997,
      "ifying": 3998,
      "Ġpros": 3999,
      "Ġenem": 4000,
      "Ġfemale": 4001,
      "Ġvirt": 4002,
      "aith": 4003,
      "Ġended": 4004,
      "Ġpatients": 4005,
      "ĠGold": 4006,
      "mittee": 4007,
      "ĠScott": 4008,
      "Ġplant": 4009,
      "Ġprices": 4010,
      "Ġfreedom": 4011,
      "Ġgrand": 4012,
      "iverse": 4013,
      "Ġele": 4014,
      "Ġtrou": 4015,
      "ribution": 4016,
      "Ġhospital": 4017,
      "Ġtraditional": 4018,
      "Ġnames": 4019,
      "Ġraised": 4020,
      "Ġgold": 4021,
      "Ġconcerns": 4022,
      "Ġbasic": 4023,
      "Ġsupposed": 4024,
      "Ġhappens": 4025,
      "Ġfunding": 4026,
      "Ġbeat": 4027,
      "Ġemployees": 4028,
      "Ġcharges": 4029,
      "Ġalbum": 4030,
      "Ġstyle": 4031,
      "Ġscen": 4032,
      "Ġauthorities": 4033,
      "Ġwilling": 4034,
      "roid": 4035,
      "Ġacqu": 4036,
      "âĢĿ,": 4037,
      "mark": 4038,
      "33": 4039,
      "Ġabsolute": 4040,
      "Ġslight": 4041,
      "Ġminister": 4042,
      "ĠÃ": 4043,
      "ya": 4044,
      "alse": 4045,
      "Ġeth": 4046,
      "Ġcommer": 4047,
      "ĠBay": 4048,
      "Ġactual": 4049,
      "Ġjump": 4050,
      "see": 4051,
      "ica": 4052,
      "Ġbirth": 4053,
      "Ġcreating": 4054,
      "ĠMo": 4055,
      "Ġlik": 4056,
      "Ġwait": 4057,
      "Ġimpl": 4058,
      "Ġbehavior": 4059,
      "Ġleaving": 4060,
      "uman": 4061,
      "Ġbeg": 4062,
      "lick": 4063,
      "rol": 4064,
      "Ġagreement": 4065,
      "ĠAP": 4066,
      "Ġseeing": 4067,
      "EL": 4068,
      "Ġmechan": 4069,
      "uana": 4070,
      "Ġgreen": 4071,
      "Ġstation": 4072,
      "ĠMost": 4073,
      "gen": 4074,
      "aby": 4075,
      "ona": 4076,
      "Sc": 4077,
      "ĠWell": 4078,
      "Ġoffered": 4079,
      "Here": 4080,
      "Ġadop": 4081,
      "SA": 4082,
      "ĠHillary": 4083,
      "Ġrank": 4084,
      "ĠMag": 4085,
      "cher": 4086,
      "Ġpush": 4087,
      "Ex": 4088,
      "Ġir": 4089,
      "pen": 4090,
      "Ġvalues": 4091,
      "Ġmer": 4092,
      ".'": 4093,
      "Ġcry": 4094,
      "Ġpropos": 4095,
      "ĠAccording": 4096,
      "Ġposted": 4097,
      "OU": 4098,
      "soft": 4099,
      "acing": 4100,
      "ĠFlorida": 4101,
      "ram": 4102,
      "Ġmostly": 4103,
      "Ġapplication": 4104,
      "Ġdetermin": 4105,
      "ĠAlex": 4106,
      "Ġensure": 4107,
      "Ġestabl": 4108,
      "Ġbelieved": 4109,
      "ĠFrance": 4110,
      "ĠTrans": 4111,
      "Ġweekend": 4112,
      "Ġweight": 4113,
      "ĠLet": 4114,
      "Ġtemper": 4115,
      "itude": 4116,
      "Ġvac": 4117,
      "rian": 4118,
      "earch": 4119,
      "ties": 4120,
      "Ġeye": 4121,
      "Ġwhatever": 4122,
      "Ġdevices": 4123,
      "Ġmassive": 4124,
      "Ġinstall": 4125,
      "Ġrecords": 4126,
      "Ġrevealed": 4127,
      "istry": 4128,
      "pri": 4129,
      "Ġlawy": 4130,
      "Ġbrief": 4131,
      "ijuana": 4132,
      "Ġpicture": 4133,
      "igned": 4134,
      "Ġstrategy": 4135,
      "Ġenforce": 4136,
      "Ġuns": 4137,
      "ae": 4138,
      "Ġparties": 4139,
      "Ġadult": 4140,
      "Ġqual": 4141,
      "Ġchoose": 4142,
      "Ġbenefit": 4143,
      "Ġappl": 4144,
      "Ġfat": 4145,
      "Ġwonder": 4146,
      "Ġarrested": 4147,
      "ĠReg": 4148,
      "uild": 4149,
      "Ġstreet": 4150,
      "500": 4151,
      "Ġlearned": 4152,
      "Ġwhom": 4153,
      "Ġassault": 4154,
      "Ġdire": 4155,
      "ĠPeople": 4156,
      "Ġmission": 4157,
      "Ġjudge": 4158,
      "Ġfeeling": 4159,
      "IL": 4160,
      "90": 4161,
      "ĠPhil": 4162,
      "ĠChicago": 4163,
      "ags": 4164,
      "Ġmemory": 4165,
      "Ġcars": 4166,
      "Ġmount": 4167,
      "ĠLaw": 4168,
      "Cl": 4169,
      "ĠLou": 4170,
      "Ġproduced": 4171,
      "Ġinfluence": 4172,
      "Ġenter": 4173,
      "Ġpattern": 4174,
      "ĠSun": 4175,
      "Ġprovides": 4176,
      "Ġtend": 4177,
      "liament": 4178,
      "estic": 4179,
      "ĠBush": 4180,
      "ste": 4181,
      "icial": 4182,
      "Ġresidents": 4183,
      "Ġasking": 4184,
      "Ġcritical": 4185,
      "ĠPort": 4186,
      "Ġcelebr": 4187,
      "Ġconfirmed": 4188,
      "Ġlose": 4189,
      "Ġwat": 4190,
      "Ġnegoti": 4191,
      "Ġoperations": 4192,
      "Ġproduce": 4193,
      "ĠBit": 4194,
      "Ġshowing": 4195,
      "Ġwild": 4196,
      "Ġborder": 4197,
      "ĠStud": 4198,
      "ingly": 4199,
      "Ġimages": 4200,
      "Ġcru": 4201,
      "ection": 4202,
      "ĠMod": 4203,
      "ription": 4204,
      "Ġsection": 4205,
      "Ġopposition": 4206,
      "Ġdistrict": 4207,
      "cont": 4208,
      "aked": 4209,
      "ĠCommittee": 4210,
      "Ġkick": 4211,
      "ĠPalest": 4212,
      "ĠMat": 4213,
      "Ġdollars": 4214,
      "no": 4215,
      "Ġindependent": 4216,
      "ĠPress": 4217,
      "However": 4218,
      "Ġruns": 4219,
      "http": 4220,
      "ĠWall": 4221,
      "Ġadvoc": 4222,
      "Ġetc": 4223,
      "rav": 4224,
      "cell": 4225,
      "Ġder": 4226,
      "Le": 4227,
      "ĠHealth": 4228,
      "________": 4229,
      "orial": 4230,
      "cience": 4231,
      "ĠSecret": 4232,
      "udd": 4233,
      "ĠSam": 4234,
      "Ġsolution": 4235,
      "ented": 4236,
      "Ġtick": 4237,
      "etty": 4238,
      "Ġinterested": 4239,
      "Ġdigital": 4240,
      "ST": 4241,
      "Ġdebt": 4242,
      "Ġdrink": 4243,
      "ugg": 4244,
      "Ġcore": 4245,
      "Ġagreed": 4246,
      "ĠCommission": 4247,
      "ront": 4248,
      "ĠCup": 4249,
      "Ġvill": 4250,
      "ĠLiber": 4251,
      "Ġbrand": 4252,
      "Ġteac": 4253,
      "Ġtheory": 4254,
      "Ġhero": 4255,
      "ocr": 4256,
      "Ġeffective": 4257,
      "Ġlearning": 4258,
      "ĠOh": 4259,
      "iation": 4260,
      "icians": 4261,
      "Ġopening": 4262,
      "rial": 4263,
      "point": 4264,
      "ĠFrancis": 4265,
      "ĠWhy": 4266,
      "ords": 4267,
      "mine": 4268,
      "ipe": 4269,
      "Ġdefend": 4270,
      "Ġinvestment": 4271,
      "Ġchem": 4272,
      "BA": 4273,
      "Ġoccas": 4274,
      "Ġrestrict": 4275,
      "Ġoffers": 4276,
      "Ġbur": 4277,
      "Ġchair": 4278,
      "Ġworse": 4279,
      "Ġgenerally": 4280,
      "ĠJustice": 4281,
      "Ġhighest": 4282,
      "ĠMal": 4283,
      "Ġmarriage": 4284,
      "Ġreplace": 4285,
      "Ġprotest": 4286,
      "ĠOther": 4287,
      "ĠKorea": 4288,
      "Ġresponsible": 4289,
      "Ġdefe": 4290,
      "Ġtrial": 4291,
      "Ġmillions": 4292,
      "Ġmur": 4293,
      "Ġbasis": 4294,
      "ĠMicro": 4295,
      "Ġexplained": 4296,
      "Ġtrain": 4297,
      "ĠWestern": 4298,
      "Ġdaily": 4299,
      "Ġmiles": 4300,
      "rig": 4301,
      "oly": 4302,
      "Ġtypes": 4303,
      "Ġobtain": 4304,
      "illing": 4305,
      "Ġproposed": 4306,
      "ĠBecause": 4307,
      "ĠMike": 4308,
      "Ġcondition": 4309,
      "Ġtelevision": 4310,
      "vest": 4311,
      "Ġpartners": 4312,
      "ĠNFL": 4313,
      "Ġheavy": 4314,
      "win": 4315,
      "These": 4316,
      "Ġopinion": 4317,
      "Ġmale": 4318,
      "ĠOur": 4319,
      "Ġice": 4320,
      "uries": 4321,
      "ĠFound": 4322,
      "ada": 4323,
      "ĠOffice": 4324,
      "Ġlimit": 4325,
      "Ġspecies": 4326,
      "Ġassociated": 4327,
      "Ġcoal": 4328,
      "Ġbecomes": 4329,
      "Ġachieve": 4330,
      "ĠMil": 4331,
      "Ġreject": 4332,
      "Ġassum": 4333,
      "Con": 4334,
      "Ġ80": 4335,
      "outhern": 4336,
      "Ġhundreds": 4337,
      "Ġunderstanding": 4338,
      "Ġdestroy": 4339,
      "Ġadvantage": 4340,
      "Ġload": 4341,
      "rate": 4342,
      "ĠAdd": 4343,
      "orthern": 4344,
      "ĠDel": 4345,
      "Ġopened": 4346,
      "aks": 4347,
      "known": 4348,
      "bert": 4349,
      "44": 4350,
      "Ġsurround": 4351,
      "coming": 4352,
      "Ġthus": 4353,
      "ĠJohnson": 4354,
      "ĠTer": 4355,
      "Ġannounce": 4356,
      "upp": 4357,
      "ĠSecurity": 4358,
      "Ġonto": 4359,
      "Ġphoto": 4360,
      "ĠMany": 4361,
      "Ġprofessional": 4362,
      "well": 4363,
      "Ġinitial": 4364,
      "icip": 4365,
      "Mr": 4366,
      "Ġborn": 4367,
      "Ġbed": 4368,
      "Ġsleep": 4369,
      "Ġmicro": 4370,
      "ander": 4371,
      "Ġneighbor": 4372,
      "Ġrat": 4373,
      "Ġvehicle": 4374,
      "Ġbecoming": 4375,
      "Ġspl": 4376,
      "olf": 4377,
      "ĠGreat": 4378,
      "ĠUk": 4379,
      "la": 4380,
      "36": 4381,
      "Ġeasier": 4382,
      "ading": 4383,
      "Ġcontrovers": 4384,
      "ĠAtt": 4385,
      "ĠInc": 4386,
      "Ġship": 4387,
      "Ġaccused": 4388,
      "ĠBig": 4389,
      "CC": 4390,
      "====": 4391,
      "azing": 4392,
      "Ġresist": 4393,
      "Ġunlike": 4394,
      "ĠWindows": 4395,
      "Ġlegislation": 4396,
      "ĠDist": 4397,
      "Ġvictims": 4398,
      "Ġillegal": 4399,
      "Ġserve": 4400,
      "Ġactive": 4401,
      "Bl": 4402,
      "odes": 4403,
      "Ġshared": 4404,
      "Ġserved": 4405,
      "oom": 4406,
      "eline": 4407,
      "Ġbomb": 4408,
      "Ġreduce": 4409,
      "Ġ31": 4410,
      "Ġscientists": 4411,
      "Ġdocuments": 4412,
      "Ġmap": 4413,
      "NA": 4414,
      "Ġjoin": 4415,
      "PA": 4416,
      "lant": 4417,
      "house": 4418,
      "32": 4419,
      "ĠArt": 4420,
      "Ġlocation": 4421,
      "Ġpurpose": 4422,
      "ĠCommun": 4423,
      "Ġaudience": 4424,
      "Ġreturned": 4425,
      "Ġwinning": 4426,
      "rey": 4427,
      "met": 4428,
      "ios": 4429,
      "Ġinternet": 4430,
      "Ġbelief": 4431,
      "lands": 4432,
      "BS": 4433,
      "Ġdepartment": 4434,
      "witch": 4435,
      "Ġbottom": 4436,
      "Ġmanagement": 4437,
      "ĠCanadian": 4438,
      "Ġvs": 4439,
      "Ġdie": 4440,
      "level": 4441,
      "Ġamb": 4442,
      "Ġincred": 4443,
      "Ġextremely": 4444,
      "Ġnine": 4445,
      "za": 4446,
      "37": 4447,
      "ih": 4448,
      "Ġexisting": 4449,
      "Ġ2006": 4450,
      "ĠSanders": 4451,
      "Ġ35": 4452,
      "Ġputting": 4453,
      "Ġwealth": 4454,
      "Ġseparate": 4455,
      "48": 4456,
      "Ġdouble": 4457,
      "orrow": 4458,
      "Ġchurch": 4459,
      "Ġframe": 4460,
      "ĠLab": 4461,
      "ĠHall": 4462,
      "irgin": 4463,
      "Ġexplain": 4464,
      "ears": 4465,
      "omas": 4466,
      "ortunately": 4467,
      "Ġmachine": 4468,
      "asy": 4469,
      "Ġsolid": 4470,
      "ĠDirect": 4471,
      "Ġcomfort": 4472,
      "Ġran": 4473,
      "Ġnegative": 4474,
      "ĠIslamic": 4475,
      "ĠInstitute": 4476,
      "iful": 4477,
      "ipp": 4478,
      "FC": 4479,
      "atically": 4480,
      "Ġargument": 4481,
      "PS": 4482,
      "Ġunc": 4483,
      "acity": 4484,
      "Ġcamera": 4485,
      "works": 4486,
      "Ġnotice": 4487,
      "Ġpurs": 4488,
      "rad": 4489,
      "Ġcommittee": 4490,
      "Ġepisode": 4491,
      "ĠYour": 4492,
      "Ġteach": 4493,
      "Ġelectric": 4494,
      "istics": 4495,
      "Ġdoubt": 4496,
      "Ġwatching": 4497,
      "Ġcommunities": 4498,
      "Ġ90": 4499,
      "GB": 4500,
      "Ġhearing": 4501,
      "ĠIsraeli": 4502,
      "Ġdefinitely": 4503,
      "ĠMad": 4504,
      "Ġinstance": 4505,
      "âĢ¢": 4506,
      "Ġconservative": 4507,
      "Ġleadership": 4508,
      "tered": 4509,
      "gu": 4510,
      "Ġstructure": 4511,
      "Ġvictory": 4512,
      "38": 4513,
      "ipped": 4514,
      "Ġnotes": 4515,
      "iller": 4516,
      "Ġbackground": 4517,
      "which": 4518,
      "âĢĶâĢĶ": 4519,
      "Ġmobile": 4520,
      "ĠBank": 4521,
      "anted": 4522,
      "Ġappeal": 4523,
      "iliar": 4524,
      "Ġrestaur": 4525,
      "ography": 4526,
      "ga": 4527,
      "Ġsupporters": 4528,
      "resp": 4529,
      "ribe": 4530,
      "Ġmarijuana": 4531,
      "ĠChurch": 4532,
      "ĠFin": 4533,
      "hem": 4534,
      "Ġfaith": 4535,
      "Ġviews": 4536,
      "itt": 4537,
      "Ġtransfer": 4538,
      "Ġmax": 4539,
      "OL": 4540,
      "Ġfresh": 4541,
      "Ġlabor": 4542,
      "ario": 4543,
      "ĠSl": 4544,
      "zen": 4545,
      "ĠGame": 4546,
      "oman": 4547,
      "Ġlaunched": 4548,
      "ghan": 4549,
      "Ġspoke": 4550,
      "Ġhack": 4551,
      "Americ": 4552,
      "Ġissued": 4553,
      "ĠFBI": 4554,
      "Ġsites": 4555,
      "Ġdirection": 4556,
      "Ġnor": 4557,
      "Ġdangerous": 4558,
      "Ġrepeated": 4559,
      "Ġnovel": 4560,
      "Ġcoverage": 4561,
      "inct": 4562,
      "Ġharm": 4563,
      "Ġrefere": 4564,
      "Ġsett": 4565,
      "Ġcompetition": 4566,
      "ctors": 4567,
      "Ġitems": 4568,
      "azon": 4569,
      "Ġcommercial": 4570,
      "Ġnorth": 4571,
      "going": 4572,
      "ampionship": 4573,
      "Ġfloor": 4574,
      "Ġexperiment": 4575,
      "Ġreact": 4576,
      "Ġtrend": 4577,
      "Image": 4578,
      "Ġded": 4579,
      "Ġtraffic": 4580,
      "Ġge": 4581,
      "Ġsupported": 4582,
      "Ġsuggested": 4583,
      "Ġcharged": 4584,
      "gency": 4585,
      "Ġstated": 4586,
      "Ġfalse": 4587,
      "Ġhus": 4588,
      "Ġdecade": 4589,
      "ĠSince": 4590,
      "Ġclosed": 4591,
      "Ġdrugs": 4592,
      "ĠFox": 4593,
      "ĠOver": 4594,
      "EM": 4595,
      "ribute": 4596,
      "Ġsun": 4597,
      "Ġsmaller": 4598,
      "ĠLike": 4599,
      "Ġdiscovered": 4600,
      "Ġworst": 4601,
      "ĠEv": 4602,
      "vention": 4603,
      "Ġcateg": 4604,
      "ĠJones": 4605,
      "Ġcompar": 4606,
      "ĠBritain": 4607,
      "Ġtelling": 4608,
      "Ġentirely": 4609,
      "Ġaspect": 4610,
      "Ġ;": 4611,
      "ici": 4612,
      "Ġdisease": 4613,
      "Ġradio": 4614,
      "Ð¾": 4615,
      "ference": 4616,
      "ĠLos": 4617,
      "****": 4618,
      "47": 4619,
      "Ġdaughter": 4620,
      "but": 4621,
      "Ġolder": 4622,
      "ĠWil": 4623,
      "Ġfarm": 4624,
      "Ġtask": 4625,
      "ĠCarol": 4626,
      "Ġcontain": 4627,
      "ady": 4628,
      "spe": 4629,
      "Ġcash": 4630,
      "Ġdriving": 4631,
      "andon": 4632,
      "do": 4633,
      "Ġcontext": 4634,
      "ulf": 4635,
      "55": 4636,
      "ĠPri": 4637,
      "NN": 4638,
      "Ġdriver": 4639,
      "Ġfinding": 4640,
      "andom": 4641,
      "equ": 4642,
      "Ġ70": 4643,
      "Ġplease": 4644,
      "Ġplays": 4645,
      "Ġconcerned": 4646,
      "ãĤ": 4647,
      "ulated": 4648,
      "Ġlargely": 4649,
      "semb": 4650,
      "annel": 4651,
      "Ġcandidates": 4652,
      "Ġtools": 4653,
      "Ġgay": 4654,
      "overy": 4655,
      "ĠTre": 4656,
      "ĠQue": 4657,
      "bing": 4658,
      "ava": 4659,
      "Ġrequires": 4660,
      "iling": 4661,
      "Ġtesting": 4662,
      "ĠUkrain": 4663,
      "Ġannual": 4664,
      "ĠUN": 4665,
      "Ġcards": 4666,
      "ius": 4667,
      "ait": 4668,
      "Ġfuel": 4669,
      "Ġanimals": 4670,
      "Ġexerc": 4671,
      "Ġcaught": 4672,
      "rick": 4673,
      "izes": 4674,
      "Ġsurface": 4675,
      "Ġgeneration": 4676,
      "night": 4677,
      "ibrary": 4678,
      "Ġwel": 4679,
      "Ġraise": 4680,
      "how": 4681,
      "!âĢĿ": 4682,
      "ĠRobert": 4683,
      "Ġjustice": 4684,
      "ception": 4685,
      "Ġbusinesses": 4686,
      "ĠJewish": 4687,
      "ĠSup": 4688,
      "Ġstrength": 4689,
      "Ġwitness": 4690,
      "Ġstrateg": 4691,
      "ĠMiss": 4692,
      "Ġtransport": 4693,
      "Ġbelieves": 4694,
      "Ġconstruction": 4695,
      "ĠPC": 4696,
      "Ġinsurance": 4697,
      "ĠChris": 4698,
      "Ġstock": 4699,
      "ĠMer": 4700,
      "Ġtruly": 4701,
      "Ġphil": 4702,
      "icy": 4703,
      "Ġconcern": 4704,
      "Ġmurder": 4705,
      "Ġactivities": 4706,
      "ĠSil": 4707,
      "Ġallowing": 4708,
      "ossible": 4709,
      "Ġholding": 4710,
      "arant": 4711,
      "ĠGree": 4712,
      "ĠPM": 4713,
      "olly": 4714,
      "phone": 4715,
      "Ġconsequ": 4716,
      "ĠAfrica": 4717,
      "CH": 4718,
      "ĠAM": 4719,
      "oyal": 4720,
      "ancy": 4721,
      "Ġafford": 4722,
      "ĠAre": 4723,
      "osure": 4724,
      "Ġscale": 4725,
      "itable": 4726,
      "ĠKen": 4727,
      "Ġplanning": 4728,
      "SP": 4729,
      "ĠAc": 4730,
      "Ġaccur": 4731,
      "bre": 4732,
      "âĢĺ": 4733,
      "Ġattend": 4734,
      "ĠJim": 4735,
      "Ġbanks": 4736,
      "anging": 4737,
      "Ġlength": 4738,
      "Ġrough": 4739,
      "Ġunit": 4740,
      "Ġjoined": 4741,
      "Ġrefuge": 4742,
      "Ġguess": 4743,
      "tery": 4744,
      "Ġsequ": 4745,
      "49": 4746,
      "Ġtells": 4747,
      "rim": 4748,
      "akistan": 4749,
      "Ġcells": 4750,
      "igrants": 4751,
      "nel": 4752,
      "Ġintroduced": 4753,
      "pective": 4754,
      "Ġsan": 4755,
      "Ġdecisions": 4756,
      "ĠAssociation": 4757,
      "DA": 4758,
      "Ġplaced": 4759,
      "Ġestablish": 4760,
      "Ġkid": 4761,
      "Ġspokesman": 4762,
      "cknow": 4763,
      "Ġhighlight": 4764,
      "Ġpresence": 4765,
      "Ġinterests": 4766,
      "39": 4767,
      "ĠAfrican": 4768,
      "bour": 4769,
      "lor": 4770,
      "ĠAngeles": 4771,
      "Ġtim": 4772,
      "ros": 4773,
      "Ġwaiting": 4774,
      "icon": 4775,
      "Ġblue": 4776,
      "ĠVer": 4777,
      "Ġ2005": 4778,
      "Ġupdate": 4779,
      "Ġdownload": 4780,
      "ĠJeff": 4781,
      "Ġenforcement": 4782,
      "Ġmentioned": 4783,
      "Ġsubsc": 4784,
      "More": 4785,
      "Ġmissing": 4786,
      "Ġrecommend": 4787,
      "Ġdeliver": 4788,
      "inter": 4789,
      "Ġhomes": 4790,
      "ĠTy": 4791,
      "ocracy": 4792,
      "Ġhasn": 4793,
      "Ġestablished": 4794,
      "ĠKh": 4795,
      "ĠStep": 4796,
      "Ġremoved": 4797,
      "formation": 4798,
      "kins": 4799,
      "ĠPalestin": 4800,
      "Ġiniti": 4801,
      "Ġproviding": 4802,
      "Ġoccup": 4803,
      "Ġconflict": 4804,
      "Ġabuse": 4805,
      "ey": 4806,
      "ĠGOP": 4807,
      "Ġeat": 4808,
      "Ġspirit": 4809,
      "Ġconversation": 4810,
      "Ġgraph": 4811,
      "ĠJud": 4812,
      "ĠPre": 4813,
      "Ġinjury": 4814,
      "ĠAfghan": 4815,
      "Ġhousing": 4816,
      "azine": 4817,
      "ronic": 4818,
      "Ġcook": 4819,
      "oted": 4820,
      "Ġdiscussion": 4821,
      "Ġnewsp": 4822,
      "ĠYes": 4823,
      "itz": 4824,
      "Ġcatch": 4825,
      "ĠRock": 4826,
      "ĠMicrosoft": 4827,
      "Ġuseful": 4828,
      "isation": 4829,
      "what": 4830,
      "ĠJapanese": 4831,
      "ĠInstead": 4832,
      "ĠGroup": 4833,
      "Ġtransl": 4834,
      "oms": 4835,
      "TC": 4836,
      "vant": 4837,
      "Ġbul": 4838,
      "Ġoperation": 4839,
      "Ġstopped": 4840,
      "Ġmodels": 4841,
      "Ġcancer": 4842,
      "##": 4843,
      "Ġfant": 4844,
      "ĠFore": 4845,
      "Ġmeasures": 4846,
      "ications": 4847,
      "ĠFrank": 4848,
      "cks": 4849,
      "kin": 4850,
      "Ġarrived": 4851,
      "iter": 4852,
      "ĠLouis": 4853,
      "Ġ\\": 4854,
      "ulate": 4855,
      "lig": 4856,
      "Ġfocused": 4857,
      "ĠLeg": 4858,
      "anda": 4859,
      "ãĥ": 4860,
      "ĠProf": 4861,
      "Ġsouth": 4862,
      "onto": 4863,
      "mail": 4864,
      "owl": 4865,
      "Ġtherefore": 4866,
      "Ġsetting": 4867,
      "Ġappropri": 4868,
      "Ġphotos": 4869,
      "agn": 4870,
      "Ġstick": 4871,
      "Ġassess": 4872,
      "Ġidentity": 4873,
      "Ġobvious": 4874,
      "season": 4875,
      "Ġhair": 4876,
      "Ġidentified": 4877,
      "ĠConst": 4878,
      "Ġsports": 4879,
      "Ġoffensive": 4880,
      "Pl": 4881,
      "ĠTHE": 4882,
      "Ġ2018": 4883,
      "Our": 4884,
      "Ġcommitted": 4885,
      "ups": 4886,
      "Ġmanaged": 4887,
      "Ġconclud": 4888,
      "igan": 4889,
      "place": 4890,
      "real": 4891,
      "Ġfourth": 4892,
      "Ġearth": 4893,
      "Ġfunds": 4894,
      "Ġskills": 4895,
      "ĠVirgin": 4896,
      "Ġprefer": 4897,
      "Ġowner": 4898,
      "gers": 4899,
      "apped": 4900,
      "ĠCEO": 4901,
      "ication": 4902,
      "Ġfigures": 4903,
      "Ã¡": 4904,
      "umn": 4905,
      "Ġfiles": 4906,
      "Ġkeeping": 4907,
      "ĠSupreme": 4908,
      "ighter": 4909,
      "Ġotherwise": 4910,
      "ĠMont": 4911,
      "34": 4912,
      "Ġ2000": 4913,
      "Ġacknow": 4914,
      "Ġgirls": 4915,
      "verse": 4916,
      "Ġexchange": 4917,
      "itutional": 4918,
      "ĠSal": 4919,
      "Ġcollection": 4920,
      "0000": 4921,
      "ĠGovernment": 4922,
      "Ġrelatively": 4923,
      "ĠInter": 4924,
      "outs": 4925,
      "ĠArmy": 4926,
      "ĠMexico": 4927,
      "Ġfinished": 4928,
      "Ġexclus": 4929,
      "ocal": 4930,
      "ula": 4931,
      "ĠMet": 4932,
      "Ġtough": 4933,
      "ĠRyan": 4934,
      "Ġconnection": 4935,
      "Ġpartner": 4936,
      "Ġsteps": 4937,
      "Ġfeels": 4938,
      "ĠNor": 4939,
      "Ġsupply": 4940,
      "Ġfle": 4941,
      "ka": 4942,
      "Ġslightly": 4943,
      "Ġtaxes": 4944,
      "ĠRichard": 4945,
      "Des": 4946,
      "ĠTim": 4947,
      "Ġveter": 4948,
      "isf": 4949,
      "mas": 4950,
      "Ġhusband": 4951,
      "ĠIr": 4952,
      "Ġsurvey": 4953,
      "uct": 4954,
      "ĠAndroid": 4955,
      "Photo": 4956,
      "Ġseek": 4957,
      "wing": 4958,
      "Ġdetect": 4959,
      "Ġdepend": 4960,
      "Ġgain": 4961,
      "75": 4962,
      "Ġkilling": 4963,
      "Ġroll": 4964,
      "Trump": 4965,
      "makers": 4966,
      "Ġsuggests": 4967,
      "ĠMartin": 4968,
      "dden": 4969,
      "Ġcircum": 4970,
      "gar": 4971,
      "eah": 4972,
      "Ġmere": 4973,
      "ĠSub": 4974,
      "Ġtrip": 4975,
      "RA": 4976,
      "Go": 4977,
      "rd": 4978,
      "Ġseconds": 4979,
      "ils": 4980,
      "hens": 4981,
      "onym": 4982,
      "ancing": 4983,
      "Ġaward": 4984,
      "ĠSur": 4985,
      "Ġcommission": 4986,
      "Ġspeaking": 4987,
      "Ġweak": 4988,
      "ï¿": 4989,
      "Ġclick": 4990,
      "gn": 4991,
      "Ġcorner": 4992,
      "Ġsust": 4993,
      "rees": 4994,
      "adium": 4995,
      "Ġaggress": 4996,
      "Ġtweet": 4997,
      "odies": 4998,
      "ĠAlthough": 4999,
      "enses": 5000,
      "range": 5001,
      "Ġelements": 5002,
      "ania": 5003,
      "iser": 5004,
      "Ġrevolution": 5005,
      "prof": 5006,
      "Ð°": 5007,
      "Ġregist": 5008,
      "icide": 5009,
      "Ġmental": 5010,
      "ĠDec": 5011,
      "ĠGood": 5012,
      "Ġplanned": 5013,
      "Ġhappening": 5014,
      "Why": 5015,
      "ĠPakistan": 5016,
      "olit": 5017,
      "Ġstruct": 5018,
      "agues": 5019,
      "Ġplanet": 5020,
      "Ġnone": 5021,
      "Ġwindow": 5022,
      "amm": 5023,
      "Ġbigger": 5024,
      "Ġtalks": 5025,
      "Ġremind": 5026,
      "Ġque": 5027,
      "with": 5028,
      "rency": 5029,
      "AA": 5030,
      "gypt": 5031,
      "oston": 5032,
      "uate": 5033,
      "ucky": 5034,
      "Ġprotection": 5035,
      "Ġhate": 5036,
      "Ġstrike": 5037,
      "Ġstarts": 5038,
      "].": 5039,
      "Ġorganizations": 5040,
      "Ġfailure": 5041,
      "Ġappoint": 5042,
      "idering": 5043,
      "Ġspect": 5044,
      "Ġdefensive": 5045,
      "Ġwish": 5046,
      "ĠTheir": 5047,
      "Ġfamiliar": 5048,
      "Ġdat": 5049,
      "ï¿½": 5050,
      "hedul": 5051,
      "ynam": 5052,
      "Ġguard": 5053,
      "Ġcrew": 5054,
      "Ġgender": 5055,
      "Ġsides": 5056,
      "ĠThomas": 5057,
      "aded": 5058,
      "Ġthanks": 5059,
      "ĠUs": 5060,
      "Ġstanding": 5061,
      "Ġsudden": 5062,
      "stream": 5063,
      "Ġimmigration": 5064,
      "HL": 5065,
      "Ġcarried": 5066,
      "Ġarmy": 5067,
      "ĠMary": 5068,
      "Ġamazing": 5069,
      "ĠJoe": 5070,
      "ym": 5071,
      "Ġscientific": 5072,
      "eless": 5073,
      "65": 5074,
      "Ġdomestic": 5075,
      "ĠJose": 5076,
      "Ġinteract": 5077,
      "Ġpit": 5078,
      "Ġdecide": 5079,
      "uters": 5080,
      "Ðµ": 5081,
      "Ġphilos": 5082,
      "ĠMP": 5083,
      "kes": 5084,
      "ĠImages": 5085,
      "uke": 5086,
      "awn": 5087,
      "arsh": 5088,
      "ĠFire": 5089,
      "Last": 5090,
      "ĠResearch": 5091,
      "Ġmulti": 5092,
      "Ġenvironmental": 5093,
      "Ġdropped": 5094,
      "imal": 5095,
      "Ġmarkets": 5096,
      "Ġstandards": 5097,
      "Ġhelping": 5098,
      "Ġscript": 5099,
      "Ġprofessor": 5100,
      "ano": 5101,
      "Ġvul": 5102,
      "erous": 5103,
      "Ġvariety": 5104,
      "obby": 5105,
      "cious": 5106,
      "Ġ32": 5107,
      "ĠAlso": 5108,
      "Ġfiled": 5109,
      "hi": 5110,
      "ĠOut": 5111,
      "Ġlived": 5112,
      "aren": 5113,
      "ĠBern": 5114,
      "lo": 5115,
      "Ġaccounts": 5116,
      "Ġoperating": 5117,
      "acks": 5118,
      "Ġhumans": 5119,
      "Ġprinc": 5120,
      "Ġneighborhood": 5121,
      "Ġsettle": 5122,
      "ĠCollege": 5123,
      "Ġcuts": 5124,
      "fe": 5125,
      "ĠAtlant": 5126,
      "!\"": 5127,
      "Ġacadem": 5128,
      "Ġterrit": 5129,
      "aven": 5130,
      "Ġimpossible": 5131,
      "Ġvotes": 5132,
      "ocol": 5133,
      "icted": 5134,
      "Ġpossibly": 5135,
      "run": 5136,
      "itect": 5137,
      "Ġ45": 5138,
      "ĠService": 5139,
      "Read": 5140,
      "Ġturns": 5141,
      "ayer": 5142,
      "ĠWeb": 5143,
      "ĠPrime": 5144,
      "Ġdegree": 5145,
      "Ġunivers": 5146,
      "ĠSecretary": 5147,
      "Ġpair": 5148,
      "Ġworry": 5149,
      "ĠFoundation": 5150,
      "Ġcolle": 5151,
      "iams": 5152,
      "ruit": 5153,
      "Ġfellow": 5154,
      "Ġincreasingly": 5155,
      "Ġbeer": 5156,
      "ĠDen": 5157,
      "Ġunits": 5158,
      "Ġbalance": 5159,
      "illa": 5160,
      "Ġrich": 5161,
      "ola": 5162,
      "stein": 5163,
      "Ġultimately": 5164,
      "ansion": 5165,
      "Ġhealthy": 5166,
      "Ġsch": 5167,
      "Ġappre": 5168,
      "ashed": 5169,
      "Ġhonest": 5170,
      "Ġalternative": 5171,
      "Ġcold": 5172,
      "ĠMos": 5173,
      "den": 5174,
      "ĠSyrian": 5175,
      "Ġagencies": 5176,
      "Ġflight": 5177,
      "ĠLast": 5178,
      "ortion": 5179,
      "Ġinnov": 5180,
      "ĠTwo": 5181,
      "Ġapparently": 5182,
      "From": 5183,
      "Ġtests": 5184,
      "rastructure": 5185,
      "aine": 5186,
      "Ġpaying": 5187,
      "ĠTime": 5188,
      "Ġreligion": 5189,
      "Ġunion": 5190,
      "vis": 5191,
      "ores": 5192,
      "Ġchanging": 5193,
      "Ġheat": 5194,
      "ĠCentral": 5195,
      "Ġtwice": 5196,
      "Ġdevelopers": 5197,
      "Ġskin": 5198,
      "Ġfundament": 5199,
      "Ġapply": 5200,
      "Ġabsolutely": 5201,
      "Ġpossibility": 5202,
      "ĠLat": 5203,
      "roud": 5204,
      "Ġcorporate": 5205,
      "Ġvast": 5206,
      "Ġcloser": 5207,
      "ĠDistrict": 5208,
      "arks": 5209,
      "atures": 5210,
      "Ġwriter": 5211,
      "ĠUnder": 5212,
      "iot": 5213,
      "Ġschedul": 5214,
      "ias": 5215,
      "Ġexpensive": 5216,
      "ader": 5217,
      "Ġapplications": 5218,
      "osen": 5219,
      "Ġapart": 5220,
      "ĠBur": 5221,
      "Ġseeking": 5222,
      "ĠST": 5223,
      "ipment": 5224,
      "apers": 5225,
      "ĠPublic": 5226,
      "Ġsoldiers": 5227,
      "IM": 5228,
      "Ġsea": 5229,
      "Ġlosing": 5230,
      "ĠTeam": 5231,
      "Ġinternal": 5232,
      "Ġauthority": 5233,
      "ĠAmazon": 5234,
      "Ġsounds": 5235,
      "46": 5236,
      "och": 5237,
      "Ġmut": 5238,
      "related": 5239,
      "Ġdeveloping": 5240,
      "Ġcapacity": 5241,
      "under": 5242,
      "Ġexperts": 5243,
      "Ġregarding": 5244,
      "isted": 5245,
      "Ġtack": 5246,
      "31": 5247,
      "Ġbeautiful": 5248,
      "Ġ2004": 5249,
      "Ġsitting": 5250,
      "ĠFrancisco": 5251,
      "ĠJon": 5252,
      "Ġimagine": 5253,
      "ĠPeter": 5254,
      "pm": 5255,
      "ĠPut": 5256,
      "ologies": 5257,
      "IV": 5258,
      "Ġshall": 5259,
      "Ġvision": 5260,
      "Ġdeploy": 5261,
      "ĠBitcoin": 5262,
      "Ġpil": 5263,
      "idden": 5264,
      "Ġfamous": 5265,
      "ĠCarolina": 5266,
      "Ġunless": 5267,
      "ĠToronto": 5268,
      "Ġarms": 5269,
      "look": 5270,
      "Ġserver": 5271,
      "Ġerror": 5272,
      "Ġpresented": 5273,
      "enced": 5274,
      "Ġtast": 5275,
      "ĠJes": 5276,
      "ĠPet": 5277,
      "Ġattorney": 5278,
      "gl": 5279,
      "uzz": 5280,
      "Ġintended": 5281,
      "Ġtrail": 5282,
      "Ġadjust": 5283,
      "Ġflow": 5284,
      "Ġcovered": 5285,
      "Even": 5286,
      "ini": 5287,
      "Of": 5288,
      "Ġgar": 5289,
      "ĠEgypt": 5290,
      "ĠAN": 5291,
      "Ġsolar": 5292,
      "pire": 5293,
      "Ġforms": 5294,
      "ĠBoston": 5295,
      "ĠMiddle": 5296,
      "war": 5297,
      "Ġconvention": 5298,
      "Ġconsult": 5299,
      "Ġresponsibility": 5300,
      "hand": 5301,
      "Ġanimal": 5302,
      "anche": 5303,
      "ĠCamp": 5304,
      "Ġelections": 5305,
      "lets": 5306,
      "Up": 5307,
      "orage": 5308,
      "Ġodd": 5309,
      "state": 5310,
      "Ġath": 5311,
      "Ġoccurred": 5312,
      "rible": 5313,
      "oving": 5314,
      "alls": 5315,
      "coh": 5316,
      "Ġfol": 5317,
      "Ġfif": 5318,
      "ĠCath": 5319,
      "Ġrid": 5320,
      "Ġsymb": 5321,
      "Ġtight": 5322,
      "uration": 5323,
      "ĠMedic": 5324,
      "Just": 5325,
      "Ġestimated": 5326,
      "01": 5327,
      "Ġyards": 5328,
      "Ġstreets": 5329,
      "Ġsurprise": 5330,
      "road": 5331,
      "ĠGal": 5332,
      "Ġsport": 5333,
      "Ġexpert": 5334,
      "ĠUSA": 5335,
      "porary": 5336,
      "Ġbroken": 5337,
      "ĠAri": 5338,
      "Ġuniversity": 5339,
      "Ġfired": 5340,
      "person": 5341,
      "ĠJo": 5342,
      "Ġscr": 5343,
      "Ġearn": 5344,
      "ĠPlan": 5345,
      "Ġtroops": 5346,
      "LE": 5347,
      "Ġguarant": 5348,
      "ION": 5349,
      "Ġinstit": 5350,
      "ĠSol": 5351,
      "Ġhelps": 5352,
      "----------------": 5353,
      "Let": 5354,
      "Ġrapid": 5355,
      "()": 5356,
      "eder": 5357,
      "ĠVe": 5358,
      "useum": 5359,
      "ĠMur": 5360,
      "aling": 5361,
      "Ġlocated": 5362,
      "Ġprosecut": 5363,
      "Ġteen": 5364,
      "Ġprove": 5365,
      "Ġvehicles": 5366,
      "Ġdomin": 5367,
      "Ġdetermine": 5368,
      "Ġspecifically": 5369,
      "rie": 5370,
      "uster": 5371,
      "Ġvulner": 5372,
      "ĠIN": 5373,
      "ĠRiver": 5374,
      "OW": 5375,
      "Ġpieces": 5376,
      "ĠChief": 5377,
      "ressive": 5378,
      "Ġdin": 5379,
      "Ġfactors": 5380,
      "ĠMass": 5381,
      "Ġton": 5382,
      "cean": 5383,
      "Ġcombat": 5384,
      "Ġbroke": 5385,
      "Ġpet": 5386,
      "ĠGuard": 5387,
      "Ġnar": 5388,
      "ĠThose": 5389,
      "Ġbaby": 5390,
      "inent": 5391,
      "Ġhyp": 5392,
      "Ġbringing": 5393,
      "Ġera": 5394,
      "Ġpotentially": 5395,
      "Ġmethods": 5396,
      "ĠOnce": 5397,
      "oty": 5398,
      "terday": 5399,
      "ours": 5400,
      "Ġequal": 5401,
      "05": 5402,
      "Ġcouncil": 5403,
      "Ġconclus": 5404,
      "Ġgovernments": 5405,
      "Ġboost": 5406,
      "Ġfaster": 5407,
      "ĠParis": 5408,
      "ĠSocial": 5409,
      "endment": 5410,
      "Ġprepared": 5411,
      "Ġstars": 5412,
      "yr": 5413,
      "ĠVirginia": 5414,
      "Ġheav": 5415,
      "Ġoffering": 5416,
      "Ġvoted": 5417,
      "Ġchallenges": 5418,
      "Ġproposal": 5419,
      "Ġruling": 5420,
      "Ġcarbon": 5421,
      "lyn": 5422,
      "Ġselling": 5423,
      "Ġequipment": 5424,
      "Ġconducted": 5425,
      "isher": 5426,
      "anish": 5427,
      "\":": 5428,
      "Ġpointed": 5429,
      "ĠAny": 5430,
      "Ġelected": 5431,
      "Ġseasons": 5432,
      "DP": 5433,
      "phas": 5434,
      "Ġjail": 5435,
      "Ġsector": 5436,
      "that": 5437,
      "sen": 5438,
      "Ġstress": 5439,
      "Ġinfrastructure": 5440,
      "Ġrefused": 5441,
      "ĠJournal": 5442,
      "class": 5443,
      "Every": 5444,
      "Ġsecure": 5445,
      "IP": 5446,
      "Ġplenty": 5447,
      "ĠCur": 5448,
      "Ġoriginally": 5449,
      "Ġremained": 5450,
      "ĠLee": 5451,
      "Ġbreat": 5452,
      "ĠFederal": 5453,
      "ĠProt": 5454,
      "Do": 5455,
      "Ġrandom": 5456,
      "ĠWho": 5457,
      "ht": 5458,
      "Ġbrow": 5459,
      "Ġdram": 5460,
      "edia": 5461,
      "ĠAustralian": 5462,
      "ĠFe": 5463,
      "95": 5464,
      "Ġdream": 5465,
      "ĠPlease": 5466,
      "ĠDuring": 5467,
      "Ġclin": 5468,
      "ĠIsland": 5469,
      "Ġretail": 5470,
      "Ġexpressed": 5471,
      "Ġclot": 5472,
      "Ġvoting": 5473,
      "Ġgreatest": 5474,
      "Ġclim": 5475,
      "olved": 5476,
      "ipping": 5477,
      "TH": 5478,
      "Ġshape": 5479,
      "Ġaffected": 5480,
      "onom": 5481,
      "ĠRub": 5482,
      "Ġweren": 5483,
      "Ab": 5484,
      "noon": 5485,
      "ureau": 5486,
      "Ġpercentage": 5487,
      "Ġcriticism": 5488,
      "ĠRem": 5489,
      "Ġmaster": 5490,
      "ĠOpen": 5491,
      "Ġprime": 5492,
      "pired": 5493,
      "Ġbought": 5494,
      "Ġsale": 5495,
      "Ġcultural": 5496,
      "ocking": 5497,
      "Ġremove": 5498,
      "Ġcas": 5499,
      "Ġtrig": 5500,
      "Ġsigns": 5501,
      "ĠCru": 5502,
      "ĠSpr": 5503,
      "Ġherself": 5504,
      "ENT": 5505,
      "Ġtourn": 5506,
      "Ġchemical": 5507,
      "cel": 5508,
      "Ġyouth": 5509,
      "Ġappearance": 5510,
      "Ġstret": 5511,
      "rier": 5512,
      "Ġdetermined": 5513,
      "Ġhurt": 5514,
      "Ġinvolve": 5515,
      "Ġpositions": 5516,
      "ĠForce": 5517,
      "Ġsignificantly": 5518,
      "standing": 5519,
      "Ġgrew": 5520,
      "ashion": 5521,
      "reens": 5522,
      "ĠWilliams": 5523,
      "Since": 5524,
      "Cont": 5525,
      "=\"": 5526,
      "ĠSant": 5527,
      "Ġweapon": 5528,
      "Ġthr": 5529,
      "Ġfacing": 5530,
      "Ġwood": 5531,
      "Ġfilms": 5532,
      "ighters": 5533,
      "ĠMel": 5534,
      "rog": 5535,
      "bur": 5536,
      "ĠBoth": 5537,
      "vey": 5538,
      ",'": 5539,
      "Ġremaining": 5540,
      "First": 5541,
      "Ġ1990": 5542,
      "Ġobviously": 5543,
      "Ġpurchase": 5544,
      "IG": 5545,
      "Ġregime": 5546,
      "Ġ=>": 5547,
      "Ġtele": 5548,
      "Ġrent": 5549,
      "ĠSing": 5550,
      "Ġindeed": 5551,
      "col": 5552,
      "ĠFree": 5553,
      "ĠSteve": 5554,
      "Ġfinish": 5555,
      "42": 5556,
      "Ġexperienced": 5557,
      "Ġ195": 5558,
      "Ġpoliticians": 5559,
      "pet": 5560,
      "Ġvideos": 5561,
      "Ġargued": 5562,
      "Ġrevenue": 5563,
      "ordin": 5564,
      "etic": 5565,
      "Ġsupporting": 5566,
      "Ġconsidering": 5567,
      "Ġshift": 5568,
      "Ġaircraft": 5569,
      "gment": 5570,
      "Ġreduced": 5571,
      "Ġprospect": 5572,
      "lymp": 5573,
      "Ġhandle": 5574,
      "SS": 5575,
      "Ġ500": 5576,
      "Ġrecorded": 5577,
      "Ġminimum": 5578,
      "Ġcontrast": 5579,
      "Ġexcited": 5580,
      "Ġsurprising": 5581,
      "Ġdepart": 5582,
      "Ġwearing": 5583,
      ",[": 5584,
      "Ġaccident": 5585,
      "ensions": 5586,
      "Ġpulled": 5587,
      "Ġproced": 5588,
      "ĠRad": 5589,
      "ĠColor": 5590,
      "Ġast": 5591,
      "Ġevening": 5592,
      "ĠJackson": 5593,
      "odd": 5594,
      "unction": 5595,
      "essions": 5596,
      "TV": 5597,
      "Ġaid": 5598,
      "ĠRo": 5599,
      "Ġconcent": 5600,
      "ĠRoad": 5601,
      "life": 5602,
      "CL": 5603,
      "ownt": 5604,
      "Ġplus": 5605,
      "Ġbasically": 5606,
      "ĠHaw": 5607,
      "Pe": 5608,
      "Ġleads": 5609,
      "Ġmarg": 5610,
      "Ġhun": 5611,
      "Ġsubs": 5612,
      "ĠPhoto": 5613,
      "arp": 5614,
      "ĠBook": 5615,
      "Ġmotiv": 5616,
      "Ġminute": 5617,
      "Ġexplos": 5618,
      "Ġmode": 5619,
      "Ġvir": 5620,
      "Ġappreci": 5621,
      "Ġswitch": 5622,
      "Ġopportunities": 5623,
      "mm": 5624,
      "Ġbound": 5625,
      "Ġobserv": 5626,
      "ruption": 5627,
      "ternal": 5628,
      "Ġconstruct": 5629,
      "Sp": 5630,
      "abilities": 5631,
      "Ġdifferences": 5632,
      "Ġemergency": 5633,
      "uts": 5634,
      "ĠPac": 5635,
      "Ġglass": 5636,
      "Ġidentify": 5637,
      "oking": 5638,
      "Ġbelong": 5639,
      "Ġspring": 5640,
      "Ġtact": 5641,
      "64": 5642,
      "Ġafternoon": 5643,
      "Ġtreated": 5644,
      "Ġlisten": 5645,
      "anged": 5646,
      "ĠMatt": 5647,
      "ogue": 5648,
      "hered": 5649,
      "Ġdiss": 5650,
      "hab": 5651,
      "Ġconsumers": 5652,
      "Ġhopes": 5653,
      "Ġcompleted": 5654,
      "Ġpanel": 5655,
      "ller": 5656,
      "ĠHol": 5657,
      "Ġtalked": 5658,
      "Ġseriously": 5659,
      "ĠCharl": 5660,
      "care": 5661,
      "Ġwidely": 5662,
      "Ġ2003": 5663,
      "yth": 5664,
      "PR": 5665,
      "Ġagent": 5666,
      "ĠConserv": 5667,
      "apping": 5668,
      "Ġvisual": 5669,
      "Ġprivacy": 5670,
      "Ġcombined": 5671,
      "ĠPower": 5672,
      "App": 5673,
      "Ġseat": 5674,
      "osite": 5675,
      "Ġturning": 5676,
      "Ġopposed": 5677,
      "Ġends": 5678,
      "Ġfactor": 5679,
      "Ġliberal": 5680,
      "apter": 5681,
      "Ġpackage": 5682,
      "Ġtur": 5683,
      "Well": 5684,
      "Ġapps": 5685,
      "Ġdefault": 5686,
      "Ind": 5687,
      "ĠSpace": 5688,
      "eds": 5689,
      "His": 5690,
      "Ġpowers": 5691,
      "ĠDaily": 5692,
      "Ġsuit": 5693,
      "Ġtypically": 5694,
      "rawn": 5695,
      "Ġ//": 5696,
      "Ġdiscl": 5697,
      "asp": 5698,
      "raud": 5699,
      "ompl": 5700,
      "Ġpages": 5701,
      "oral": 5702,
      "ache": 5703,
      "Ġlots": 5704,
      "Ġadvance": 5705,
      "Ġcart": 5706,
      "Ġmort": 5707,
      "ĠSaud": 5708,
      "Ġpassing": 5709,
      "Ġdismiss": 5710,
      "Ġtrouble": 5711,
      "ĠProject": 5712,
      "mosp": 5713,
      "Ġreaction": 5714,
      "idel": 5715,
      "Ġ2001": 5716,
      "ffee": 5717,
      "Ġstruggle": 5718,
      "Ġplants": 5719,
      "Ġhol": 5720,
      "ĠGet": 5721,
      "ĠNov": 5722,
      "Ġflat": 5723,
      "Ġcalcul": 5724,
      "Ġzone": 5725,
      "Ġmal": 5726,
      "uous": 5727,
      "Phone": 5728,
      "PD": 5729,
      "obe": 5730,
      "],": 5731,
      "respond": 5732,
      "Another": 5733,
      "Se": 5734,
      "Ġenemy": 5735,
      "cohol": 5736,
      "Ġbodies": 5737,
      "Ġid": 5738,
      "Ġelement": 5739,
      "Ġburn": 5740,
      "ivered": 5741,
      "Ġinstruct": 5742,
      "Ġproceed": 5743,
      "oken": 5744,
      "zer": 5745,
      "Ġvalid": 5746,
      "Ġquiet": 5747,
      "ributed": 5748,
      "ĠShow": 5749,
      "04": 5750,
      "Ġattempts": 5751,
      "Ġthank": 5752,
      "ĠSqu": 5753,
      "ĠOlymp": 5754,
      "De": 5755,
      "esters": 5756,
      "Ġstands": 5757,
      "Ġdenied": 5758,
      "Ġwrites": 5759,
      "top": 5760,
      "nell": 5761,
      "ĠNAS": 5762,
      "Ġentertain": 5763,
      "plom": 5764,
      "Ġfrust": 5765,
      "Ġtun": 5766,
      "Ġreference": 5767,
      "Ġsets": 5768,
      "erry": 5769,
      "ket": 5770,
      "ĠMem": 5771,
      "Ġcollabor": 5772,
      "ita": 5773,
      "writ": 5774,
      "Ġquant": 5775,
      "edd": 5776,
      "Ġmatters": 5777,
      "lines": 5778,
      "Ġapproved": 5779,
      "Ġreporters": 5780,
      "Ġsatisf": 5781,
      "Am": 5782,
      "Ġdisappoint": 5783,
      "Ġbroadcast": 5784,
      "Ġresponded": 5785,
      "free": 5786,
      "sts": 5787,
      "Ġdistance": 5788,
      "ĠToday": 5789,
      "ato": 5790,
      "Ġcopyright": 5791,
      "Ġcreation": 5792,
      "Ġtradition": 5793,
      "Ġrenew": 5794,
      "UT": 5795,
      "ĠBBC": 5796,
      "Ġtransition": 5797,
      "Ġsem": 5798,
      ",âĢĻ": 5799,
      "Ġexplo": 5800,
      "Ġflag": 5801,
      "Ġunable": 5802,
      "Ġsac": 5803,
      "Ġupgr": 5804,
      "Ġelimin": 5805,
      "ĠSystem": 5806,
      "Ġprompt": 5807,
      "Ġpitch": 5808,
      "ĠRel": 5809,
      "aped": 5810,
      "aints": 5811,
      "estival": 5812,
      "mond": 5813,
      "ucks": 5814,
      "Ġconfident": 5815,
      "Ð¸": 5816,
      "Ġoptim": 5817,
      "ĠYet": 5818,
      "Ġstorm": 5819,
      "Ġcapable": 5820,
      "Ġapprox": 5821,
      "ĠScience": 5822,
      "Ġcloud": 5823,
      "Ġhttps": 5824,
      "ĠPenn": 5825,
      "Ġexperiences": 5826,
      "Ġinstitutions": 5827,
      "isters": 5828,
      "aniel": 5829,
      "Ġcrimes": 5830,
      "Ġpictures": 5831,
      "razy": 5832,
      "ĠDirector": 5833,
      "Ġsplit": 5834,
      "Ġreportedly": 5835,
      "Ġnumerous": 5836,
      "Ġperspective": 5837,
      "resents": 5838,
      "ilit": 5839,
      "Ġbull": 5840,
      "aled": 5841,
      "ĠWilliam": 5842,
      "ĠMedia": 5843,
      "ilty": 5844,
      "Ġdeclared": 5845,
      "II": 5846,
      "rant": 5847,
      "Ġcaption": 5848,
      "Ġgiant": 5849,
      "rid": 5850,
      "Ġcraft": 5851,
      "usiness": 5852,
      "ulations": 5853,
      "Ġadvert": 5854,
      "elly": 5855,
      "abled": 5856,
      "pass": 5857,
      "astern": 5858,
      "ĠFollow": 5859,
      "Ġgrab": 5860,
      "Ġtechnical": 5861,
      "Ġcoast": 5862,
      "Ġmovies": 5863,
      "Ġfaces": 5864,
      "Ġconfidence": 5865,
      "Ġsevere": 5866,
      "Ġgra": 5867,
      "Ġmand": 5868,
      "Ġforget": 5869,
      "Ġproud": 5870,
      "Ġsuffered": 5871,
      "ĠTurkey": 5872,
      "Ġmarried": 5873,
      "tion": 5874,
      "Ġforg": 5875,
      "uations": 5876,
      "ker": 5877,
      "Ġongoing": 5878,
      "Ġcooper": 5879,
      "ishes": 5880,
      "ampion": 5881,
      "09": 5882,
      "Ġnewspaper": 5883,
      "Ġexplains": 5884,
      "host": 5885,
      "Ġfly": 5886,
      "ĠWood": 5887,
      "unte": 5888,
      "Ġshouldn": 5889,
      "Ġordered": 5890,
      "Ġloved": 5891,
      "Ġadvice": 5892,
      "Ĥ¬": 5893,
      "Ġupdates": 5894,
      "Ġweather": 5895,
      "ĠLabour": 5896,
      "43": 5897,
      "Ġinjured": 5898,
      "Ġcircumst": 5899,
      "Ġadmitted": 5900,
      "ÃŃ": 5901,
      "Ġrot": 5902,
      "dule": 5903,
      "employ": 5904,
      "ĠAfghanistan": 5905,
      "reland": 5906,
      "78": 5907,
      "Ġarchitect": 5908,
      "âĪ": 5909,
      "ĠTra": 5910,
      "Ġmessages": 5911,
      "ĠGrand": 5912,
      "Ġreporting": 5913,
      "Ġbuildings": 5914,
      "Ġdelay": 5915,
      "ĠRon": 5916,
      "Over": 5917,
      "ĠHuman": 5918,
      "aza": 5919,
      "adow": 5920,
      "Ġaccompl": 5921,
      "Ġappropriate": 5922,
      "Ġfindings": 5923,
      "Ġconnected": 5924,
      "Ġthoughts": 5925,
      "called": 5926,
      "Ġeval": 5927,
      "Ġsubstant": 5928,
      "ounded": 5929,
      "Ġroute": 5930,
      "ĠChristmas": 5931,
      "66": 5932,
      "Ġdeclined": 5933,
      "ĠAndrew": 5934,
      "MA": 5935,
      "ionally": 5936,
      "Ġauth": 5937,
      "Rep": 5938,
      "abin": 5939,
      "Other": 5940,
      "Ġstatements": 5941,
      "Ġourselves": 5942,
      "Ġleaves": 5943,
      "Ġedge": 5944,
      "ĠScot": 5945,
      "Ġviolent": 5946,
      "ĠBet": 5947,
      "Ġeditor": 5948,
      "OD": 5949,
      "During": 5950,
      "Res": 5951,
      "Ġconfirm": 5952,
      "Ġtech": 5953,
      "evin": 5954,
      "ĠAv": 5955,
      "razil": 5956,
      "oves": 5957,
      "nergy": 5958,
      "Ġdelivered": 5959,
      "Ġpublicly": 5960,
      "ansas": 5961,
      "Ġemails": 5962,
      "enture": 5963,
      "acter": 5964,
      "ĠWal": 5965,
      "ĠAT": 5966,
      "Ġdial": 5967,
      "Ġlawyer": 5968,
      "Ġrail": 5969,
      "sex": 5970,
      "Ġemphas": 5971,
      "Ġarmed": 5972,
      "Ġ1980": 5973,
      "ooth": 5974,
      "Ġpractices": 5975,
      "Ġfish": 5976,
      "Ġterrorist": 5977,
      "angers": 5978,
      "Ġphilosoph": 5979,
      "ĠSov": 5980,
      "Ġfilled": 5981,
      "ĠPhot": 5982,
      "Ġgather": 5983,
      "Ġcauses": 5984,
      "Ġpicked": 5985,
      "Ġprin": 5986,
      "Ġguns": 5987,
      "ellow": 5988,
      "Ġexcell": 5989,
      "Ġcentre": 5990,
      "ĠMuslims": 5991,
      "ĠSher": 5992,
      "Ġreaders": 5993,
      "rich": 5994,
      "Ġmoral": 5995,
      "Ġobjects": 5996,
      "Ġpatient": 5997,
      "ĠOhio": 5998,
      "ĠRev": 5999,
      "Ġpool": 6000,
      "Ġperman": 6001,
      "cons": 6002,
      "LS": 6003,
      "Ġtree": 6004,
      "Ġvan": 6005,
      "cos": 6006,
      "uy": 6007,
      "Ġwalking": 6008,
      "Ġrealize": 6009,
      "Ġcontains": 6010,
      "Ġtransform": 6011,
      "orders": 6012,
      "Ġlegit": 6013,
      "can": 6014,
      "Ġdynam": 6015,
      "essor": 6016,
      "Ġargue": 6017,
      "Ġexpansion": 6018,
      "Many": 6019,
      "Yes": 6020,
      "ĠMichigan": 6021,
      "orse": 6022,
      "ĠSwed": 6023,
      "ette": 6024,
      "Ġagents": 6025,
      "Ġsubsequ": 6026,
      "Ġeffectively": 6027,
      "::": 6028,
      "arn": 6029,
      "uls": 6030,
      "ĠGen": 6031,
      "ĠUkraine": 6032,
      "41": 6033,
      "Ġbond": 6034,
      "Ġactivists": 6035,
      "long": 6036,
      "Ġrain": 6037,
      "date": 6038,
      "Ġtalent": 6039,
      "Ġexercise": 6040,
      "American": 6041,
      "Ġinitially": 6042,
      "Ġcann": 6043,
      "illance": 6044,
      "Ġartist": 6045,
      "ĠBat": 6046,
      "Ġdebut": 6047,
      "ĠSign": 6048,
      "ala": 6049,
      "enda": 6050,
      "Ġmissed": 6051,
      "Ġsad": 6052,
      "ĠBack": 6053,
      "Ġthinks": 6054,
      "Ġgovernor": 6055,
      "arters": 6056,
      "asure": 6057,
      "def": 6058,
      "gia": 6059,
      "Ġcrack": 6060,
      "Ġdesire": 6061,
      "ourney": 6062,
      "arl": 6063,
      "ĠSee": 6064,
      "mates": 6065,
      "Ġexamples": 6066,
      "88": 6067,
      "ĠFer": 6068,
      "Ġshop": 6069,
      "Ġlinked": 6070,
      "Ġsecretary": 6071,
      "ĠID": 6072,
      "ĠRead": 6073,
      "iat": 6074,
      "Ġwear": 6075,
      "ĠMa": 6076,
      "ĠStr": 6077,
      "Ġincreases": 6078,
      "Ġmagazine": 6079,
      "Ġlabel": 6080,
      "Ġmotor": 6081,
      "ĠHy": 6082,
      "Tube": 6083,
      "ĠStan": 6084,
      "Ġsession": 6085,
      "Ġquarterback": 6086,
      "ĠDou": 6087,
      "ĠGM": 6088,
      "Ġwarned": 6089,
      "illy": 6090,
      "Ġallegations": 6091,
      "Ġinjuries": 6092,
      "Ġexplan": 6093,
      "ĠBoard": 6094,
      "Although": 6095,
      "ĠLin": 6096,
      "Ġflood": 6097,
      "agers": 6098,
      "ĠVict": 6099,
      "ĠLife": 6100,
      "orry": 6101,
      "ĠMount": 6102,
      "Oh": 6103,
      "ĠSum": 6104,
      "Ġnecessarily": 6105,
      "Ġplane": 6106,
      "Ġfaced": 6107,
      "Ġincor": 6108,
      "rum": 6109,
      "Follow": 6110,
      "Ġdoctor": 6111,
      "Ġradical": 6112,
      "ĠTechn": 6113,
      "Ã¤": 6114,
      "Ġclient": 6115,
      "ĠWork": 6116,
      "Ġatmosp": 6117,
      "Ġabandon": 6118,
      "Add": 6119,
      "Ġhell": 6120,
      "ador": 6121,
      "TA": 6122,
      "Ġ36": 6123,
      "ĠSecond": 6124,
      "ĠIreland": 6125,
      "Ġrepresents": 6126,
      "ĠPrem": 6127,
      "Ġpra": 6128,
      "ĠRE": 6129,
      "Ġfacts": 6130,
      "Qu": 6131,
      "Ġadvanced": 6132,
      "enger": 6133,
      "Ġessentially": 6134,
      "ERS": 6135,
      "ĠJul": 6136,
      "Ġperformed": 6137,
      "Ġneither": 6138,
      "Ġnations": 6139,
      "Ġannouncement": 6140,
      "ĠOk": 6141,
      "Ġmir": 6142,
      "edy": 6143,
      "Ġdistribution": 6144,
      "Ġfranch": 6145,
      "Ġpure": 6146,
      "Spe": 6147,
      "ouston": 6148,
      "Ġdiplom": 6149,
      "Ġfollows": 6150,
      "amin": 6151,
      "Ġvari": 6152,
      "Ġaccepted": 6153,
      "ĠRod": 6154,
      "ĠSeattle": 6155,
      "Ġmyster": 6156,
      "Ġremark": 6157,
      "Ġbare": 6158,
      "icing": 6159,
      "itors": 6160,
      "Ġchart": 6161,
      "Ġrestaurant": 6162,
      "iest": 6163,
      "Ġnearby": 6164,
      "Ġske": 6165,
      "Ġwithd": 6166,
      "Ġscheduled": 6167,
      "ĠDan": 6168,
      "Ġdecre": 6169,
      "ĠIll": 6170,
      "Ġing": 6171,
      "law": 6172,
      "Ġaf": 6173,
      "ĠCNN": 6174,
      "Ġeverybody": 6175,
      "ĠiPhone": 6176,
      "Ġalt": 6177,
      "ĠCub": 6178,
      "gent": 6179,
      "Ġmaterials": 6180,
      "Ġstorage": 6181,
      "Can": 6182,
      "ĠKim": 6183,
      "usal": 6184,
      "Ġplayoff": 6185,
      "Ġadds": 6186,
      "ĠBarack": 6187,
      "abb": 6188,
      "Ġoffense": 6189,
      "Ġphen": 6190,
      "ĠISIS": 6191,
      "ĠHen": 6192,
      "Ġwarm": 6193,
      "Ġdrivers": 6194,
      "irty": 6195,
      "otic": 6196,
      "Ġguilty": 6197,
      "Ġsuc": 6198,
      "Ġsongs": 6199,
      "Ġbegins": 6200,
      "Ġlisted": 6201,
      "Ġflo": 6202,
      "Ġfort": 6203,
      "Ġresolution": 6204,
      "esome": 6205,
      "TS": 6206,
      "Ġtotally": 6207,
      "Most": 6208,
      "Ġexistence": 6209,
      "ĠElect": 6210,
      "Ġyesterday": 6211,
      "Ġsav": 6212,
      "word": 6213,
      "rip": 6214,
      "57": 6215,
      "Ġstood": 6216,
      "Ġsurprised": 6217,
      "ĠJews": 6218,
      "Ġsam": 6219,
      "ĠKorean": 6220,
      "ÑĤ": 6221,
      "Ġcombination": 6222,
      "Ġlawsuit": 6223,
      "Ġnetworks": 6224,
      "Ġtemperature": 6225,
      "Then": 6226,
      "Ġmoves": 6227,
      "Ġspons": 6228,
      "Ġshots": 6229,
      "ĠVol": 6230,
      "Ġinvestors": 6231,
      "water": 6232,
      "Ġimproved": 6233,
      "Ġcorrespond": 6234,
      "Ġsought": 6235,
      "Ġ2002": 6236,
      "Ġinput": 6237,
      "Ġapplied": 6238,
      "ĠFar": 6239,
      "str": 6240,
      "ĠOnly": 6241,
      "irds": 6242,
      "Ġ300": 6243,
      "Ġdiscussed": 6244,
      "Ġjoint": 6245,
      "Ġdemocracy": 6246,
      "ena": 6247,
      "ĠTO": 6248,
      "Ġfill": 6249,
      "ĠAff": 6250,
      "Ġpushed": 6251,
      "Ġthreats": 6252,
      "ĠWhe": 6253,
      "Ġdatab": 6254,
      "sembly": 6255,
      "stood": 6256,
      "Ob": 6257,
      "Ġride": 6258,
      "ĠDiv": 6259,
      "ollywood": 6260,
      "Ġroughly": 6261,
      "Ġconsequences": 6262,
      "whel": 6263,
      "ĠBlue": 6264,
      "ĠWeek": 6265,
      "Ġoutput": 6266,
      "ĠColumb": 6267,
      "Ġcolleagues": 6268,
      "Ġlibrary": 6269,
      "ocratic": 6270,
      "Ġ33": 6271,
      "Ġrein": 6272,
      "Ġevolution": 6273,
      "ideo": 6274,
      "Ġbrings": 6275,
      "Ġsquare": 6276,
      "Ġcreative": 6277,
      "Ġboss": 6278,
      "Ġheads": 6279,
      "Ġenh": 6280,
      "ĠClub": 6281,
      "ĠLake": 6282,
      "Ġfunctions": 6283,
      "ĠDevelop": 6284,
      "ĠRomney": 6285,
      "Ġboys": 6286,
      "onna": 6287,
      "Ġentered": 6288,
      "acle": 6289,
      "Ġrising": 6290,
      "igure": 6291,
      "IF": 6292,
      "ĠDev": 6293,
      "Ġlie": 6294,
      "Ġparliament": 6295,
      "Ġisland": 6296,
      "Ġmanufacture": 6297,
      "Ġcontest": 6298,
      "Ġresc": 6299,
      "icious": 6300,
      "dis": 6301,
      "Ġmetal": 6302,
      "Ġarticles": 6303,
      "PU": 6304,
      "born": 6305,
      "ician": 6306,
      "Ġrow": 6307,
      "Ġhistorical": 6308,
      "ĠIts": 6309,
      "Ġlinks": 6310,
      "Ġplot": 6311,
      "Ġwarning": 6312,
      "Ġfairly": 6313,
      "Ġconsistent": 6314,
      "greg": 6315,
      "Ġentry": 6316,
      "Ġbehavi": 6317,
      "ĠAnother": 6318,
      "Ġrally": 6319,
      "Ġnav": 6320,
      "Ġresident": 6321,
      "Ġtow": 6322,
      "Ġunlikely": 6323,
      "athan": 6324,
      "omin": 6325,
      "FP": 6326,
      "ĠBrazil": 6327,
      "alty": 6328,
      "Ġyounger": 6329,
      "ĠBoy": 6330,
      "Ġheavily": 6331,
      "ĠHist": 6332,
      "Ġbutton": 6333,
      "duc": 6334,
      "oked": 6335,
      "fortunately": 6336,
      "Ġstores": 6337,
      "Ġclasses": 6338,
      "ĠSaudi": 6339,
      "ĠAsia": 6340,
      "Ġnative": 6341,
      "Ġanywhere": 6342,
      "Ġathlet": 6343,
      "Ġscored": 6344,
      "etroit": 6345,
      "mes": 6346,
      "Ġreceiving": 6347,
      "ĠRights": 6348,
      "Ġkit": 6349,
      "ĠWalk": 6350,
      "Ġbright": 6351,
      "Ġsucceed": 6352,
      "86": 6353,
      "Ġimportance": 6354,
      "Ġversions": 6355,
      "iques": 6356,
      "OC": 6357,
      "Ġexpression": 6358,
      "Ġfacility": 6359,
      "power": 6360,
      "Ã³": 6361,
      "agan": 6362,
      "Ġbike": 6363,
      "erences": 6364,
      "ĠBob": 6365,
      "IR": 6366,
      "oma": 6367,
      "ĠEach": 6368,
      "Ġreturns": 6369,
      "Ġclassic": 6370,
      "Ġstring": 6371,
      "ĠMaybe": 6372,
      "Ġprohib": 6373,
      "Ġbuying": 6374,
      "olve": 6375,
      "Ġdeaths": 6376,
      "arden": 6377,
      "Ġsymbol": 6378,
      "ship": 6379,
      "Ġdefined": 6380,
      "Ġfraud": 6381,
      "Ġdoctors": 6382,
      "issions": 6383,
      "west": 6384,
      "zona": 6385,
      "Ġreplaced": 6386,
      "Ġallegedly": 6387,
      "Ġprotests": 6388,
      "Ġcere": 6389,
      "esc": 6390,
      "ĠCIA": 6391,
      "ĠEr": 6392,
      "Ġbon": 6393,
      "Ġtargets": 6394,
      "Ġmarketing": 6395,
      "Ġbreaking": 6396,
      "Ġhardware": 6397,
      "See": 6398,
      "Ġcurrency": 6399,
      "Ġalcohol": 6400,
      "ĠNBA": 6401,
      "Ġsomewhat": 6402,
      "Ġhat": 6403,
      "Ġshif": 6404,
      "Ġregulations": 6405,
      "Ġhousehold": 6406,
      "ittle": 6407,
      "style": 6408,
      "Ġlaugh": 6409,
      "Ġmanage": 6410,
      "alian": 6411,
      "Ġhoping": 6412,
      "Ġconsumer": 6413,
      "Ġcampus": 6414,
      "Ġholds": 6415,
      "Ġbot": 6416,
      "Ġwaste": 6417,
      "po": 6418,
      "Man": 6419,
      "Ġessential": 6420,
      "Ġvice": 6421,
      "ĠDC": 6422,
      "Ġfavour": 6423,
      "ometimes": 6424,
      "Ġblow": 6425,
      "Ġadm": 6426,
      "opy": 6427,
      "Ġintention": 6428,
      "Ġempt": 6429,
      "Ġfewer": 6430,
      "ua": 6431,
      "Ġsym": 6432,
      "pret": 6433,
      "ican": 6434,
      "press": 6435,
      "Ġdownt": 6436,
      "Ġlock": 6437,
      "cho": 6438,
      "77": 6439,
      "Ġsees": 6440,
      "Ġopposite": 6441,
      "Ã¼": 6442,
      "hetic": 6443,
      "Ġcustomer": 6444,
      "Ġmotion": 6445,
      "En": 6446,
      "Pol": 6447,
      "ĠRam": 6448,
      "Ġindustrial": 6449,
      "Ġmoments": 6450,
      "Ġgrown": 6451,
      "ĠLib": 6452,
      "Ġefficient": 6453,
      "Ġpromise": 6454,
      "Ġrum": 6455,
      "Ġclosely": 6456,
      "Get": 6457,
      "Ġacts": 6458,
      "Ġchain": 6459,
      "Ġrelevant": 6460,
      "Ġschol": 6461,
      "Ġcert": 6462,
      "kel": 6463,
      "ii": 6464,
      "ĠCard": 6465,
      "ĠGames": 6466,
      "ĠSports": 6467,
      "ĠImage": 6468,
      "print": 6469,
      "Ġsuffering": 6470,
      "ĠBrook": 6471,
      "Ġsyn": 6472,
      "twitter": 6473,
      "ellect": 6474,
      "Ġparticipants": 6475,
      "andal": 6476,
      "utch": 6477,
      "Ġpregn": 6478,
      "ml": 6479,
      "Ġillust": 6480,
      "erves": 6481,
      "Ġsharing": 6482,
      "ĠYear": 6483,
      "Ġsick": 6484,
      "ĠColorado": 6485,
      "name": 6486,
      "ĠSky": 6487,
      "ĠMs": 6488,
      "ulous": 6489,
      "ĠDie": 6490,
      "Ġbug": 6491,
      "Ġcycle": 6492,
      "Ġ38": 6493,
      "Ġadults": 6494,
      "Ġharder": 6495,
      "Ġimmediate": 6496,
      "ocket": 6497,
      "ĠYouTube": 6498,
      "Ġemotional": 6499,
      "Ġtom": 6500,
      "ĠAnn": 6501,
      "tering": 6502,
      "inem": 6503,
      "ĠGar": 6504,
      "Ġsquad": 6505,
      "Ġcircumstances": 6506,
      "otal": 6507,
      "Ġhur": 6508,
      "Ġacknowled": 6509,
      "ockey": 6510,
      "rome": 6511,
      "Ã¶": 6512,
      "ologist": 6513,
      "Ġmechanism": 6514,
      "gas": 6515,
      "Ġwave": 6516,
      "Ġmine": 6517,
      "Ġkinds": 6518,
      "Ġzero": 6519,
      "Ġvolunte": 6520,
      "Ġextent": 6521,
      "Ġopponent": 6522,
      "ĠRight": 6523,
      "ĠWatch": 6524,
      "06": 6525,
      "ĠPalestinian": 6526,
      "chen": 6527,
      "Ġowned": 6528,
      "Ġfashion": 6529,
      "Ġreferred": 6530,
      "ayers": 6531,
      "Ġdepth": 6532,
      "Ġancient": 6533,
      "Ġtrick": 6534,
      "Ġmanner": 6535,
      "ĠCatholic": 6536,
      "atell": 6537,
      "ĠValley": 6538,
      "ĠWild": 6539,
      "ĠWik": 6540,
      "Ġisol": 6541,
      "Ġdecline": 6542,
      "nic": 6543,
      "Ġfeatured": 6544,
      "Ġdetailed": 6545,
      "Ġcheap": 6546,
      "ĠDavis": 6547,
      "08": 6548,
      "nam": 6549,
      "Ġacting": 6550,
      "Ġauthors": 6551,
      "ĠSoviet": 6552,
      "obb": 6553,
      "Ġguide": 6554,
      "Ġtournament": 6555,
      "ĠPutin": 6556,
      "ĠEric": 6557,
      "foot": 6558,
      "Ġartists": 6559,
      "Ġfundamental": 6560,
      "ĠHouston": 6561,
      "Ġtiny": 6562,
      "Ġsnow": 6563,
      "Ġformed": 6564,
      "xy": 6565,
      "Ġpip": 6566,
      "Ġwins": 6567,
      "Ġearned": 6568,
      "Ġregional": 6569,
      "ĠOld": 6570,
      "certain": 6571,
      "ĠOF": 6572,
      "Ġdescribe": 6573,
      "Ġcarrying": 6574,
      "Ġunus": 6575,
      "Ġrelationships": 6576,
      "friend": 6577,
      "Ġcompetitive": 6578,
      "efully": 6579,
      "Ġintent": 6580,
      "chers": 6581,
      "Ġtermin": 6582,
      "Ġfrequently": 6583,
      "07": 6584,
      "ĠDi": 6585,
      "ĠJesus": 6586,
      "Ġliqu": 6587,
      "Donald": 6588,
      "Ġposts": 6589,
      "ĠAut": 6590,
      "ĠEll": 6591,
      "Ġembr": 6592,
      "Ġdivision": 6593,
      "bar": 6594,
      "Ġinstru": 6595,
      "uated": 6596,
      "Ġschedule": 6597,
      "Com": 6598,
      "ĠHel": 6599,
      "Ġbatt": 6600,
      "Ġalongside": 6601,
      "Ġcrazy": 6602,
      "va": 6603,
      "Ġsurveillance": 6604,
      "Ġbag": 6605,
      "Ġmouth": 6606,
      "Ġlies": 6607,
      "ordan": 6608,
      "Ġ49": 6609,
      "ĠSupp": 6610,
      "Ġcomfortable": 6611,
      "ĠGra": 6612,
      "Ġ37": 6613,
      "Ġexcellent": 6614,
      "Ġcoffee": 6615,
      "ĠWay": 6616,
      "Ġsentence": 6617,
      "Ġmeat": 6618,
      "Ġattempted": 6619,
      "Ġsand": 6620,
      "iger": 6621,
      "Ġimmigrants": 6622,
      "hus": 6623,
      "Ġrepeatedly": 6624,
      "Ġstrange": 6625,
      "Ġupdated": 6626,
      "Ġhotel": 6627,
      "iami": 6628,
      "',": 6629,
      "awa": 6630,
      "game": 6631,
      "ĠLong": 6632,
      "rison": 6633,
      "Ġcontroversial": 6634,
      "uable": 6635,
      "Ġstruck": 6636,
      "Ġupcoming": 6637,
      "Ġsigning": 6638,
      "Ġcommitment": 6639,
      "Despite": 6640,
      "ensus": 6641,
      "Ġdedicated": 6642,
      "luding": 6643,
      "ora": 6644,
      "Ġegg": 6645,
      "anes": 6646,
      "weight": 6647,
      "Ġcolumn": 6648,
      "Ġdeeply": 6649,
      "Ġsister": 6650,
      "Ġrealized": 6651,
      "azi": 6652,
      "ĠWars": 6653,
      "ĠEnergy": 6654,
      "ĠCy": 6655,
      "Ġreput": 6656,
      "DS": 6657,
      "Per": 6658,
      "ĠHome": 6659,
      "adel": 6660,
      "aze": 6661,
      "Ġ48": 6662,
      "bel": 6663,
      "Ġtort": 6664,
      "Ġinspired": 6665,
      "Ġcausing": 6666,
      "ocation": 6667,
      "Ġwire": 6668,
      "Ġpushing": 6669,
      "ORE": 6670,
      "Ġpled": 6671,
      "ĠCharles": 6672,
      "Ġwalked": 6673,
      "izz": 6674,
      "Two": 6675,
      "Ġstudio": 6676,
      "rive": 6677,
      "Like": 6678,
      "Ġtargeted": 6679,
      "burg": 6680,
      "Ġring": 6681,
      "ĠEconom": 6682,
      "Ġuniverse": 6683,
      "ĠDown": 6684,
      "ĠCle": 6685,
      "Ġterrorism": 6686,
      "03": 6687,
      "ceived": 6688,
      "allas": 6689,
      "Ġserving": 6690,
      "Ġchairman": 6691,
      "Ġorders": 6692,
      "iciency": 6693,
      "boy": 6694,
      "ko": 6695,
      "amily": 6696,
      "Ġproperties": 6697,
      "People": 6698,
      "ĠAgain": 6699,
      "Ġmedic": 6700,
      "02": 6701,
      "you": 6702,
      "Ġflu": 6703,
      "Ġassets": 6704,
      "Ġchannel": 6705,
      "ĠMen": 6706,
      "umber": 6707,
      "vin": 6708,
      "iveness": 6709,
      "avor": 6710,
      "Ġrape": 6711,
      "Ġagenda": 6712,
      "Ġcrash": 6713,
      "Ġstream": 6714,
      "Ġapproval": 6715,
      "Ġliterally": 6716,
      "Ġprotected": 6717,
      "Ġmainstream": 6718,
      "ĠArizona": 6719,
      "Ġsuicide": 6720,
      "ĠMot": 6721,
      "pan": 6722,
      "ographic": 6723,
      "Ġnewslet": 6724,
      "Ġjourney": 6725,
      "ĠIP": 6726,
      "ĠYoung": 6727,
      "ĠLord": 6728,
      "Ġrisks": 6729,
      "ĠFort": 6730,
      "Ġneut": 6731,
      "Ġvirtual": 6732,
      "ĠPR": 6733,
      "ĠNY": 6734,
      "Ġsimpl": 6735,
      "Ġcongress": 6736,
      "56": 6737,
      "ĠCruz": 6738,
      "Ġoverwhel": 6739,
      "mun": 6740,
      "Ġwake": 6741,
      "Ġurban": 6742,
      "ĠJava": 6743,
      "rence": 6744,
      "Ġdu": 6745,
      "ĠDefense": 6746,
      "oration": 6747,
      "Ġsubsid": 6748,
      "sole": 6749,
      "Ġcommunication": 6750,
      "Ġlatter": 6751,
      "59": 6752,
      "Ġwatched": 6753,
      "Ġusual": 6754,
      "Ġdealing": 6755,
      "Ġvolume": 6756,
      "Ġobserved": 6757,
      "ether": 6758,
      "ĠSar": 6759,
      "ĠEnter": 6760,
      "Ġsurrounding": 6761,
      "Ġ34": 6762,
      "ĠVan": 6763,
      "Ġprecise": 6764,
      "Ġknowing": 6765,
      "Ġgod": 6766,
      "Ġforth": 6767,
      "Ġselection": 6768,
      "ĠDetroit": 6769,
      "rors": 6770,
      "Ġsky": 6771,
      "Ġpassion": 6772,
      "Ġhall": 6773,
      "ĠMax": 6774,
      "Ġwinter": 6775,
      "ĠFil": 6776,
      "gor": 6777,
      "ugh": 6778,
      "Ġfasc": 6779,
      "fire": 6780,
      "Ġexhib": 6781,
      "Ġabortion": 6782,
      "Ġpromised": 6783,
      "Ġaside": 6784,
      "Ġ1970": 6785,
      "Ġking": 6786,
      "Ġrequirements": 6787,
      "Ġalive": 6788,
      "phy": 6789,
      "stone": 6790,
      "ulture": 6791,
      "Ġexplore": 6792,
      "Ġopponents": 6793,
      "Ġdestroyed": 6794,
      "ta": 6795,
      "ĠTop": 6796,
      "iments": 6797,
      "Ġformat": 6798,
      "ĠTal": 6799,
      "ĠJr": 6800,
      "Ġrefugees": 6801,
      "Or": 6802,
      "Ġfolks": 6803,
      "Int": 6804,
      "Ġsho": 6805,
      "ĠStephen": 6806,
      "ixt": 6807,
      "Ġdesk": 6808,
      "Ġremote": 6809,
      "Ġdiscover": 6810,
      "Ġskill": 6811,
      "anges": 6812,
      "Ġnoticed": 6813,
      "Ġsending": 6814,
      "ĠBest": 6815,
      "Ġpal": 6816,
      "ĠHollywood": 6817,
      "May": 6818,
      "Ġnorthern": 6819,
      "Ġunemploy": 6820,
      "Ġphenomen": 6821,
      "ipl": 6822,
      "Ġnarr": 6823,
      "Ġbattery": 6824,
      "Ġfemin": 6825,
      "Ġblame": 6826,
      "onymous": 6827,
      "woman": 6828,
      "Ġwelcome": 6829,
      "ĠâĪ": 6830,
      "xual": 6831,
      "Ġtested": 6832,
      "Ġexciting": 6833,
      "ĠWat": 6834,
      "Ġdiet": 6835,
      "Ġnarrow": 6836,
      "ĠTit": 6837,
      "NC": 6838,
      "Ġlocations": 6839,
      "Ġteachers": 6840,
      "iro": 6841,
      "rations": 6842,
      "Ġunknown": 6843,
      "ĠCast": 6844,
      "Ġapproximately": 6845,
      "ĠPolit": 6846,
      "Ġprotesters": 6847,
      "Ġgap": 6848,
      "Ġmatches": 6849,
      "Ġwest": 6850,
      "Ġmistake": 6851,
      "LA": 6852,
      "ingu": 6853,
      "Ġmaximum": 6854,
      "Fr": 6855,
      "ĠWilson": 6856,
      "ensity": 6857,
      "Ġbasket": 6858,
      "Ġnomine": 6859,
      "Ġprote": 6860,
      "ĠIns": 6861,
      "Ġanyway": 6862,
      "Ġdefeat": 6863,
      "Ġtheme": 6864,
      "ĠKevin": 6865,
      "ao": 6866,
      "ati": 6867,
      "Ñģ": 6868,
      "apse": 6869,
      "post": 6870,
      "Ġstim": 6871,
      "Ġreward": 6872,
      "Ġinvolving": 6873,
      "Ġshel": 6874,
      "ĠChild": 6875,
      "abis": 6876,
      "Ġterritory": 6877,
      "lv": 6878,
      "Ġwal": 6879,
      "Ġmoder": 6880,
      "Ġproof": 6881,
      "Ġsustain": 6882,
      "acc": 6883,
      "Ġretire": 6884,
      "alle": 6885,
      "Ġdeals": 6886,
      "Ġeating": 6887,
      "Ġmerely": 6888,
      "Ġheight": 6889,
      "Ġoblig": 6890,
      "Ġproperly": 6891,
      "Ġextended": 6892,
      "Ġfixed": 6893,
      "ogan": 6894,
      "68": 6895,
      "Ġattacked": 6896,
      "gery": 6897,
      "ĠArch": 6898,
      "ĠLu": 6899,
      "ĠMic": 6900,
      "Ġpromote": 6901,
      "ĠDNA": 6902,
      "Ġfuck": 6903,
      "Rel": 6904,
      "Ġimpressive": 6905,
      "Ġslowly": 6906,
      "ĠSociety": 6907,
      "ĠDar": 6908,
      "Ġsample": 6909,
      "Ġconver": 6910,
      "Ġitem": 6911,
      "Ġrequests": 6912,
      "ĠMiller": 6913,
      "Ġsuddenly": 6914,
      "Ð½": 6915,
      "Ġchose": 6916,
      "Ġlicense": 6917,
      "Ġadapt": 6918,
      "Ġdry": 6919,
      "aylor": 6920,
      "ĠBrad": 6921,
      "inson": 6922,
      "Ġobtained": 6923,
      "Ġdisag": 6924,
      "Ġputs": 6925,
      "ĠAgency": 6926,
      "itarian": 6927,
      "Ġdiagn": 6928,
      "dro": 6929,
      "Ġteacher": 6930,
      "lies": 6931,
      "ĠNASA": 6932,
      "Ġtopic": 6933,
      "Ġtypical": 6934,
      "Ġassume": 6935,
      "Ġworried": 6936,
      "ĠPan": 6937,
      "Ġwage": 6938,
      "Ġfees": 6939,
      "Ġselected": 6940,
      "Ġgang": 6941,
      "asks": 6942,
      "Ġrecognize": 6943,
      "osis": 6944,
      "CA": 6945,
      "Ġfacilities": 6946,
      "ĠFord": 6947,
      "Ġconfront": 6948,
      "Ġfranchise": 6949,
      "Ġunderstood": 6950,
      "owered": 6951,
      "Ġregions": 6952,
      "ums": 6953,
      "Ġconfig": 6954,
      "Ġhonor": 6955,
      "Ġsweet": 6956,
      "Ġstrongly": 6957,
      "Ġcomparison": 6958,
      "Ġsole": 6959,
      "Ġsupports": 6960,
      "aire": 6961,
      "ĠPS": 6962,
      "Ġcommunications": 6963,
      "Ġarguments": 6964,
      "Ġthread": 6965,
      "celer": 6966,
      "ĠAdminist": 6967,
      "igation": 6968,
      "ĠCamer": 6969,
      "Ġwid": 6970,
      "aug": 6971,
      "verty": 6972,
      "Ġphase": 6973,
      "ĠWomen": 6974,
      "ĠItaly": 6975,
      "VER": 6976,
      "raid": 6977,
      "Ġconstant": 6978,
      "redit": 6979,
      "Ġlimits": 6980,
      "Ġeast": 6981,
      "acking": 6982,
      "Ġrub": 6983,
      "kay": 6984,
      "ĠDam": 6985,
      "Ġjournalists": 6986,
      "Ġdrag": 6987,
      "Ġpoverty": 6988,
      "Ġresistance": 6989,
      "Ġhits": 6990,
      "alo": 6991,
      "Ġscheme": 6992,
      "ĠDun": 6993,
      "%)": 6994,
      "pool": 6995,
      "ĠGeorgia": 6996,
      "ĠIrish": 6997,
      "ĠLand": 6998,
      "Ġcondem": 6999,
      "Ġped": 7000,
      "aser": 7001,
      "axy": 7002,
      "Ġcritics": 7003,
      "Ġlikes": 7004,
      "Ġwinner": 7005,
      "ĠFour": 7006,
      "ĠNations": 7007,
      "Ġtransp": 7008,
      "Ġ75": 7009,
      "ĠMiami": 7010,
      "cers": 7011,
      "Ġpersonally": 7012,
      "Ġdress": 7013,
      "Ġallies": 7014,
      "Ġequival": 7015,
      "Ġcontrolled": 7016,
      "Ġbunch": 7017,
      "uilding": 7018,
      "Ġvillage": 7019,
      "Ġstronger": 7020,
      "ĠCarl": 7021,
      "Ġfalling": 7022,
      "owa": 7023,
      "Ġchampion": 7024,
      "Ġharass": 7025,
      "ura": 7026,
      "Ġexposed": 7027,
      "Ġflex": 7028,
      "Ġsomehow": 7029,
      "ĠNight": 7030,
      "âĢĻ.": 7031,
      "Ġencourage": 7032,
      "ĠClass": 7033,
      "ÑĢ": 7034,
      "ĠSpanish": 7035,
      "Ġescape": 7036,
      "ĠNetwork": 7037,
      "wan": 7038,
      "Ġdefinition": 7039,
      "gender": 7040,
      "obile": 7041,
      "Ġbid": 7042,
      "pected": 7043,
      "Ġsoul": 7044,
      "Te": 7045,
      "Ġinqu": 7046,
      "ĠNHL": 7047,
      "Ġcutting": 7048,
      "Ġtruck": 7049,
      "Ġsouthern": 7050,
      "GBT": 7051,
      "</": 7052,
      "cow": 7053,
      "Ġfields": 7054,
      "CS": 7055,
      "Ġdirected": 7056,
      "orted": 7057,
      "Ġmeetings": 7058,
      "53": 7059,
      "ĠJersey": 7060,
      "ĠCompany": 7061,
      "asts": 7062,
      "arity": 7063,
      "aun": 7064,
      "mo": 7065,
      "John": 7066,
      "Ġcomprom": 7067,
      ".\"[": 7068,
      "igg": 7069,
      "ĠAsian": 7070,
      "Ġsomewhere": 7071,
      "ĠStand": 7072,
      "rimination": 7073,
      "list": 7074,
      "ĠDaniel": 7075,
      "Ġruled": 7076,
      "92": 7077,
      "Ġpurposes": 7078,
      "Ġevil": 7079,
      "ciples": 7080,
      "zens": 7081,
      "Ġamounts": 7082,
      "rary": 7083,
      "Ġending": 7084,
      "Ġparam": 7085,
      "52": 7086,
      "Ġicon": 7087,
      "Ġstretch": 7088,
      "Ġletters": 7089,
      "Ġprofit": 7090,
      "Ġties": 7091,
      "sea": 7092,
      "pes": 7093,
      "Ġemissions": 7094,
      "ĠDespite": 7095,
      "vy": 7096,
      "enders": 7097,
      "Ġdeleg": 7098,
      "Ġclaiming": 7099,
      "Ġempty": 7100,
      "Ġdecent": 7101,
      "oric": 7102,
      "Ġfinds": 7103,
      "Ġpunish": 7104,
      "ĠThank": 7105,
      "Ġfold": 7106,
      "Ġdogs": 7107,
      "cript": 7108,
      "Ġintellect": 7109,
      "NE": 7110,
      "Ġdesper": 7111,
      "98": 7112,
      "Ġretain": 7113,
      "Ġtrees": 7114,
      "Ġdriven": 7115,
      "ĠLove": 7116,
      "Ġanx": 7117,
      "arry": 7118,
      "CE": 7119,
      "Ġdrawn": 7120,
      "ĠKn": 7121,
      "ĠAttorney": 7122,
      "Ġideal": 7123,
      "Ġofficially": 7124,
      "Ġpolls": 7125,
      "ads": 7126,
      "Ġaspects": 7127,
      "Ġfifth": 7128,
      "nesota": 7129,
      "iner": 7130,
      "Ġcolon": 7131,
      "Ġtrading": 7132,
      "Ġemployee": 7133,
      "otten": 7134,
      "ĠCam": 7135,
      "Ġfighters": 7136,
      "Ġvacc": 7137,
      "Ġprimarily": 7138,
      "Ġchosen": 7139,
      "ĠReal": 7140,
      "han": 7141,
      "ĠScotland": 7142,
      "iform": 7143,
      "Ġreasonable": 7144,
      "lder": 7145,
      "Ġgotten": 7146,
      "ĠWater": 7147,
      "ĠÎ": 7148,
      "Ġbear": 7149,
      "ras": 7150,
      "Ġcaptured": 7151,
      "Ġgoods": 7152,
      "ĠThough": 7153,
      "owed": 7154,
      "intend": 7155,
      "Ġactor": 7156,
      "oming": 7157,
      "Police": 7158,
      "Ġdistinct": 7159,
      "Ġhouses": 7160,
      "ĠLabor": 7161,
      "67": 7162,
      "Ġpic": 7163,
      "Ġdeveloper": 7164,
      "Ġrejected": 7165,
      "Ġsomebody": 7166,
      "lls": 7167,
      "ĠInf": 7168,
      "Ġconstantly": 7169,
      "Ġdeck": 7170,
      "Ġexists": 7171,
      "ĠTurk": 7172,
      "sters": 7173,
      "Ġble": 7174,
      "Ġengage": 7175,
      "Ġupper": 7176,
      "Ġregularly": 7177,
      "Ġpayment": 7178,
      "Ġextensive": 7179,
      "UR": 7180,
      "Ġsignal": 7181,
      "Ġthreatened": 7182,
      "Ġchoices": 7183,
      "ĠServices": 7184,
      "Ġconstit": 7185,
      "Ġsituations": 7186,
      "58": 7187,
      "Ġadmit": 7188,
      "Ġencoun": 7189,
      "unning": 7190,
      "sm": 7191,
      "Ġcontem": 7192,
      "isan": 7193,
      "Ġspin": 7194,
      "ĠSea": 7195,
      "Ġrival": 7196,
      "Ġcourts": 7197,
      "eping": 7198,
      "Ġpayments": 7199,
      "lock": 7200,
      "ĠEnd": 7201,
      "Ġflying": 7202,
      "icer": 7203,
      "Ġsolutions": 7204,
      "Ġtechnologies": 7205,
      "Ġanswers": 7206,
      "ĠDark": 7207,
      "Ġelectricity": 7208,
      "ĠRog": 7209,
      "Any": 7210,
      "Ġperfectly": 7211,
      "Ġmixed": 7212,
      "Ġboot": 7213,
      "ĠLew": 7214,
      "Ġoutcome": 7215,
      "Ġbench": 7216,
      "Ġdatabase": 7217,
      "Ġworldwide": 7218,
      "irms": 7219,
      "ĠBell": 7220,
      "ĠCD": 7221,
      "Ġresulting": 7222,
      "anchester": 7223,
      "ĠWhere": 7224,
      "Ġincl": 7225,
      "hips": 7226,
      "ĠChampionship": 7227,
      "Ġapartment": 7228,
      "Ġcrucial": 7229,
      "ĠMS": 7230,
      "icken": 7231,
      "Once": 7232,
      "ĠJordan": 7233,
      "Ġcomponents": 7234,
      "Ġmurd": 7235,
      "Ġseats": 7236,
      "regon": 7237,
      "Ġelsewhere": 7238,
      "Ġcontributed": 7239,
      "ĠDallas": 7240,
      "Ġsight": 7241,
      "ĠMoore": 7242,
      "ĠGall": 7243,
      "ĠHun": 7244,
      "Ġkeeps": 7245,
      "inding": 7246,
      "Ġanymore": 7247,
      "iana": 7248,
      "Ġprofile": 7249,
      "ĠView": 7250,
      "chain": 7251,
      "Ġpod": 7252,
      "ĠItalian": 7253,
      "earing": 7254,
      "Ġfeedback": 7255,
      "ĠSk": 7256,
      "cr": 7257,
      "Ġatmosphere": 7258,
      "Ġdemands": 7259,
      "Ġfounder": 7260,
      "300": 7261,
      "ĠBas": 7262,
      "Ġconscious": 7263,
      "Ġcategory": 7264,
      "asters": 7265,
      "Ġbaseball": 7266,
      "apes": 7267,
      "ĠOrgan": 7268,
      "Ġestimates": 7269,
      "Ġcoalition": 7270,
      "star": 7271,
      "Ġincredibly": 7272,
      "ĠAcadem": 7273,
      "ĠBrian": 7274,
      "ĠAdam": 7275,
      "ez": 7276,
      "Ġnarrative": 7277,
      "ĠWin": 7278,
      "ĠCat": 7279,
      "Ġmayor": 7280,
      "inations": 7281,
      "Off": 7282,
      "Ġenemies": 7283,
      "Ġrig": 7284,
      "oster": 7285,
      "Ġnobody": 7286,
      "acked": 7287,
      "ilarly": 7288,
      "Ġbills": 7289,
      "Ġtank": 7290,
      "Ġmanip": 7291,
      "Also": 7292,
      "ĠSouthern": 7293,
      "ĠOS": 7294,
      "Ġ00": 7295,
      "otes": 7296,
      "Ġbrew": 7297,
      "mod": 7298,
      "Ġgro": 7299,
      "ifer": 7300,
      "Ġaccurate": 7301,
      "Ġprovince": 7302,
      "MP": 7303,
      "ĠVictor": 7304,
      "Ġregistered": 7305,
      "emen": 7306,
      "Ġawesome": 7307,
      "Ġdollar": 7308,
      "phia": 7309,
      "Ġwriters": 7310,
      "Ġincredible": 7311,
      "imp": 7312,
      "Ġreturning": 7313,
      "Ġticket": 7314,
      "ĠTest": 7315,
      "Ġbitcoin": 7316,
      "MS": 7317,
      "Ġpaint": 7318,
      "ĠBowl": 7319,
      "Ġmachines": 7320,
      "Ġterrible": 7321,
      "ĠAuthor": 7322,
      "Ġparking": 7323,
      "Ġconcluded": 7324,
      "ĠLight": 7325,
      "fast": 7326,
      "Ġrecovery": 7327,
      "there": 7328,
      "Ġemployment": 7329,
      "Ġcontrols": 7330,
      "lers": 7331,
      "ĠSteven": 7332,
      "Ġconven": 7333,
      "Ġnut": 7334,
      "ĠCivil": 7335,
      "Ġcontinuing": 7336,
      "Today": 7337,
      "Ġunp": 7338,
      "onic": 7339,
      "Ġweird": 7340,
      "Ġdozen": 7341,
      "Ġnewly": 7342,
      "Ġenthus": 7343,
      "rates": 7344,
      "ali": 7345,
      "Ġgenerate": 7346,
      "Ġrepresented": 7347,
      "ĠEp": 7348,
      "Ne": 7349,
      "Ġraising": 7350,
      "Ġstead": 7351,
      "Ġangry": 7352,
      "Ġexplanation": 7353,
      "Ġexcess": 7354,
      "ĠBru": 7355,
      "ye": 7356,
      "Ġroutine": 7357,
      "Ġtied": 7358,
      "essed": 7359,
      "54": 7360,
      "ĠDisney": 7361,
      "Ġconclusion": 7362,
      "adelphia": 7363,
      "agram": 7364,
      "rage": 7365,
      "ĠHot": 7366,
      "Ġgranted": 7367,
      "Ġinformed": 7368,
      "ĠSC": 7369,
      "Ġroster": 7370,
      "Ġplastic": 7371,
      "Ġclients": 7372,
      "Ġorganized": 7373,
      "Ġcounty": 7374,
      "Ġaggressive": 7375,
      "Ġinnoc": 7376,
      "Ġ39": 7377,
      "Ġengaged": 7378,
      "iscons": 7379,
      "Ġloan": 7380,
      "Dr": 7381,
      "Ġstuck": 7382,
      "Ġtall": 7383,
      "ĠTw": 7384,
      "era": 7385,
      "Ġproved": 7386,
      "isconsin": 7387,
      "bal": 7388,
      "Ġimper": 7389,
      "ria": 7390,
      "Ġ($": 7391,
      "Ġcapture": 7392,
      "itar": 7393,
      "Ġhabit": 7394,
      "Ġscenes": 7395,
      "ĠConstitution": 7396,
      "Ġconspir": 7397,
      "Ġsuccessfully": 7398,
      "ima": 7399,
      "ĠProgram": 7400,
      "ĠRoman": 7401,
      "Ġdrinking": 7402,
      "ĠGi": 7403,
      "ĠKurd": 7404,
      "ĠSn": 7405,
      "ĠThanks": 7406,
      "ĠConf": 7407,
      "Ġassistant": 7408,
      "Getty": 7409,
      "ĠId": 7410,
      "Sec": 7411,
      "Ġ1999": 7412,
      "reams": 7413,
      "Ġgaming": 7414,
      "Ġmyth": 7415,
      "ĠAR": 7416,
      "ifications": 7417,
      "Because": 7418,
      "Ġcomplicated": 7419,
      "Ġpilot": 7420,
      "inity": 7421,
      "mont": 7422,
      "aron": 7423,
      "Ġinterpret": 7424,
      "ĠUt": 7425,
      "Ġcompens": 7426,
      "Ġsatell": 7427,
      "Ġaimed": 7428,
      "Ġcomplaint": 7429,
      "actions": 7430,
      "Ġtherap": 7431,
      "Ġiron": 7432,
      "Ġhidden": 7433,
      "Ġrating": 7434,
      "Ġblocks": 7435,
      "ĠâĢĻ": 7436,
      "Ġmagic": 7437,
      "ĠJoseph": 7438,
      "ĠAvenue": 7439,
      "raph": 7440,
      "Ġpenalty": 7441,
      "esy": 7442,
      "ĠContin": 7443,
      "Ġprogramming": 7444,
      "Ġreporter": 7445,
      "ked": 7446,
      "Ġkil": 7447,
      "Ġru": 7448,
      "Ġsolve": 7449,
      "Ġlawmakers": 7450,
      "ĠBalt": 7451,
      "Ġdegrees": 7452,
      "Ġconsumption": 7453,
      "ĠCare": 7454,
      "Ġinstalled": 7455,
      "ĠBusiness": 7456,
      "rating": 7457,
      "ĠMars": 7458,
      "Ġtechniques": 7459,
      "iscal": 7460,
      "ĠCross": 7461,
      "ĠSpain": 7462,
      "anny": 7463,
      "ĠPacific": 7464,
      "Ġhel": 7465,
      "Inst": 7466,
      "gorith": 7467,
      "Ġtaught": 7468,
      "Ġpin": 7469,
      "ules": 7470,
      "Ed": 7471,
      "ĠEduc": 7472,
      "Ġchances": 7473,
      "ba": 7474,
      "Ġads": 7475,
      "Ġaudio": 7476,
      "%.": 7477,
      "Ġrecording": 7478,
      "ĠMinnesota": 7479,
      "Ġcup": 7480,
      "ĠSenator": 7481,
      "Ġattended": 7482,
      "uan": 7483,
      "Ġoperate": 7484,
      "uine": 7485,
      "itals": 7486,
      "Ġinfect": 7487,
      "Ġautomatically": 7488,
      "Ġassistance": 7489,
      "Ġ42": 7490,
      "Ġacademic": 7491,
      "51": 7492,
      "Ġphr": 7493,
      "Ġindex": 7494,
      "Ġorigin": 7495,
      "Ġpermanent": 7496,
      "Ġrus": 7497,
      "hent": 7498,
      "rete": 7499,
      "Ġwestern": 7500,
      "Ġveteran": 7501,
      "Ġcompre": 7502,
      "rep": 7503,
      "Ġshares": 7504,
      "Ġneuro": 7505,
      "ĠZeal": 7506,
      "Ġsurvive": 7507,
      "Ġextract": 7508,
      "ĠDead": 7509,
      "Ġteaching": 7510,
      "Ġbom": 7511,
      "Ġvisited": 7512,
      "urb": 7513,
      "Ġestate": 7514,
      "Ġreputation": 7515,
      "ĠAh": 7516,
      "Ġroot": 7517,
      "Ġsufficient": 7518,
      "Ġextrem": 7519,
      ">>": 7520,
      "ĠTem": 7521,
      "Ġregardless": 7522,
      "Ġoverse": 7523,
      "Ġgrant": 7524,
      "Ġ150": 7525,
      "Ġvaluable": 7526,
      "ĠFre": 7527,
      "Ġshit": 7528,
      "Ġracial": 7529,
      "Ġenable": 7530,
      "Ġmonit": 7531,
      "Ġanticip": 7532,
      "========": 7533,
      "Ġdict": 7534,
      "Ġinspir": 7535,
      "oz": 7536,
      "Ġaccomp": 7537,
      "Ġtitles": 7538,
      "aed": 7539,
      "Ġadopted": 7540,
      "ĠForeign": 7541,
      "ĠOper": 7542,
      "everal": 7543,
      "Ġelite": 7544,
      "ĠNBC": 7545,
      "Ġ64": 7546,
      "Ġdowntown": 7547,
      "Ġmarked": 7548,
      "ĠViet": 7549,
      "Ġchat": 7550,
      "thew": 7551,
      "ĠParliament": 7552,
      "Ġmail": 7553,
      "Ġlawyers": 7554,
      "olt": 7555,
      "ĠNation": 7556,
      "Ġtrib": 7557,
      "Ġfake": 7558,
      "Ġfunny": 7559,
      "Ġcollected": 7560,
      "Ġdim": 7561,
      "ibilities": 7562,
      "LC": 7563,
      "etary": 7564,
      "Ġvulnerable": 7565,
      "sell": 7566,
      "Ġcomic": 7567,
      "ĠStill": 7568,
      "Ġdefence": 7569,
      "month": 7570,
      "ĠNick": 7571,
      "ĠSeries": 7572,
      "Ġmedium": 7573,
      "world": 7574,
      "Ġpatterns": 7575,
      "Ġenjoyed": 7576,
      "Ġprinciples": 7577,
      "Ġwarming": 7578,
      "Ġportion": 7579,
      "Ġsympt": 7580,
      "aturally": 7581,
      "Ġprominent": 7582,
      "ashes": 7583,
      "Ġchampionship": 7584,
      "ĠJosh": 7585,
      "ĠTurn": 7586,
      "Ġafraid": 7587,
      "97": 7588,
      "Ġuncertain": 7589,
      "Ġbrut": 7590,
      "Ġnegotiations": 7591,
      "Ġpace": 7592,
      "Ġextension": 7593,
      "quarters": 7594,
      "idency": 7595,
      "HS": 7596,
      "Ġbes": 7597,
      "Ġtaste": 7598,
      "da": 7599,
      "rypt": 7600,
      "Me": 7601,
      "ĠSpecial": 7602,
      "Ġmainly": 7603,
      "Ġpounds": 7604,
      "ĠOs": 7605,
      "ĠInvest": 7606,
      "ĠLook": 7607,
      "Ġdepending": 7608,
      "ĠColl": 7609,
      "Ġadvis": 7610,
      "cling": 7611,
      "Ġplug": 7612,
      "96": 7613,
      "Ġpersonnel": 7614,
      "Ġprivile": 7615,
      "Ġgall": 7616,
      "Ġequivalent": 7617,
      "Ġcable": 7618,
      "inder": 7619,
      "ĠLGBT": 7620,
      "ĠMoscow": 7621,
      "rific": 7622,
      "cles": 7623,
      "bro": 7624,
      "Ġspr": 7625,
      "Ġsanctions": 7626,
      "Ġdescribes": 7627,
      "abama": 7628,
      "Ġprocesses": 7629,
      "azz": 7630,
      "orne": 7631,
      "Ġsup": 7632,
      "Ð¾Ð": 7633,
      "from": 7634,
      "ĠEastern": 7635,
      "Ġexplicit": 7636,
      "Ġtracks": 7637,
      "Ġdisaster": 7638,
      "ĠTake": 7639,
      "Ġtroub": 7640,
      "ĠGreek": 7641,
      "ĠIT": 7642,
      "Ġelev": 7643,
      "Ġworker": 7644,
      "icate": 7645,
      "Ġintense": 7646,
      "Ġemerged": 7647,
      "tes": 7648,
      "Ġfought": 7649,
      "Ġpossession": 7650,
      "antic": 7651,
      "Rec": 7652,
      "ystem": 7653,
      "ĠTony": 7654,
      "Ġyield": 7655,
      "Ġphones": 7656,
      "Ġagric": 7657,
      "Ġresulted": 7658,
      "Ġcrypt": 7659,
      "Ġapolog": 7660,
      "ĠAL": 7661,
      "âĸ": 7662,
      "mal": 7663,
      "car": 7664,
      "Ġhadn": 7665,
      "idelines": 7666,
      "enth": 7667,
      "Ġbusy": 7668,
      "upid": 7669,
      "Ġcited": 7670,
      "Pr": 7671,
      "Ġthin": 7672,
      "Ġsurgery": 7673,
      "Ġexposure": 7674,
      "Ġcorruption": 7675,
      "ĠIowa": 7676,
      "ĠOregon": 7677,
      "prise": 7678,
      "iel": 7679,
      "Ġunusual": 7680,
      "Ġpasses": 7681,
      "Ġinev": 7682,
      "Ġminority": 7683,
      "Ġtor": 7684,
      "ref": 7685,
      "Ġ400": 7686,
      "Ġcompete": 7687,
      "viously": 7688,
      "ĠHas": 7689,
      "âĢĻ,": 7690,
      "Ġduty": 7691,
      "Ġentit": 7692,
      "she": 7693,
      "fall": 7694,
      "Ġrecip": 7695,
      "Ġthousand": 7696,
      "mann": 7697,
      "Ġsynt": 7698,
      "ĠBull": 7699,
      "aa": 7700,
      "Ġrecru": 7701,
      "ĠRay": 7702,
      "Ġrarely": 7703,
      "ĠPolicy": 7704,
      "Ġtaxp": 7705,
      "rently": 7706,
      "ĠBefore": 7707,
      "ĠNavy": 7708,
      "Ġengineering": 7709,
      "istent": 7710,
      "active": 7711,
      "ĠNorthern": 7712,
      "Ġimplementation": 7713,
      "Ġgenerated": 7714,
      "ĠKelly": 7715,
      "obs": 7716,
      "))": 7717,
      "ĠFed": 7718,
      "ĠCoast": 7719,
      "Ġbrowser": 7720,
      "Ġdiscipl": 7721,
      "Ġvisible": 7722,
      "Ġexpectations": 7723,
      "making": 7724,
      "ogen": 7725,
      "Ġveget": 7726,
      "Ġfinance": 7727,
      "ĠKent": 7728,
      "ĠZealand": 7729,
      "igen": 7730,
      "Ġpropag": 7731,
      "ML": 7732,
      "athy": 7733,
      "Ġshortly": 7734,
      "ĠPhiladelphia": 7735,
      "ĠAli": 7736,
      "EA": 7737,
      "ĠAnth": 7738,
      "ĠVis": 7739,
      "Ġstrict": 7740,
      "log": 7741,
      "ĠTaylor": 7742,
      "ĠWisconsin": 7743,
      "Ġeverywhere": 7744,
      "ĠGer": 7745,
      "Ġfeelings": 7746,
      "scape": 7747,
      "Ġunw": 7748,
      "ĠLinux": 7749,
      "ĠRick": 7750,
      "Ġscenario": 7751,
      "Ġcameras": 7752,
      "Ġfirms": 7753,
      "orough": 7754,
      "this": 7755,
      "text": 7756,
      "ĠManchester": 7757,
      "Ġenorm": 7758,
      "Ġcomputers": 7759,
      "elect": 7760,
      "Mean": 7761,
      "ilton": 7762,
      "ATE": 7763,
      "front": 7764,
      "Ġpermission": 7765,
      "Ġcoordin": 7766,
      "Ġparticipate": 7767,
      "ogether": 7768,
      "Ġacceler": 7769,
      "Ġbehalf": 7770,
      "Ġcontracts": 7771,
      "Ġlosses": 7772,
      "Ġblind": 7773,
      "ifies": 7774,
      "ja": 7775,
      "etime": 7776,
      "cus": 7777,
      "ĠAmendment": 7778,
      "Ġcyber": 7779,
      "ĠFood": 7780,
      "Ġcrop": 7781,
      "Ġtag": 7782,
      "gun": 7783,
      "Ġho": 7784,
      "Ġstations": 7785,
      "________________": 7786,
      "inking": 7787,
      "ĠOl": 7788,
      "ni": 7789,
      "Ġairport": 7790,
      "Ġloud": 7791,
      "Ġclubs": 7792,
      "ĠSaf": 7793,
      "Ġfee": 7794,
      "ĠMu": 7795,
      "Ġaffili": 7796,
      "Ġadvertising": 7797,
      "Ġshock": 7798,
      "found": 7799,
      "who": 7800,
      "Ġsaved": 7801,
      "Ġpriority": 7802,
      "Ġfounded": 7803,
      "umin": 7804,
      "Ġuncom": 7805,
      "rell": 7806,
      "ĠHenry": 7807,
      "Ġthick": 7808,
      "ĠCome": 7809,
      "ĠAsh": 7810,
      "ĠGlobal": 7811,
      "Mar": 7812,
      "BO": 7813,
      "ca": 7814,
      "ĠPay": 7815,
      "amber": 7816,
      "Ġven": 7817,
      "Ġlights": 7818,
      "Ġestablishment": 7819,
      "Ġrelief": 7820,
      "Ġpump": 7821,
      "imore": 7822,
      "Us": 7823,
      "Ġgained": 7824,
      "umer": 7825,
      "Ġdozens": 7826,
      "iler": 7827,
      "Ġprinciple": 7828,
      "ĠSP": 7829,
      "Ġstadium": 7830,
      "ĠHT": 7831,
      "ĠFred": 7832,
      "Ġgenuine": 7833,
      "Ġlaid": 7834,
      "Ġformal": 7835,
      "ĠCall": 7836,
      "Ġwing": 7837,
      "uer": 7838,
      "Col": 7839,
      "ĠSnow": 7840,
      "Ġobst": 7841,
      "Ġcounsel": 7842,
      "ami": 7843,
      "athered": 7844,
      "ĠFoot": 7845,
      "profit": 7846,
      "Ġcreates": 7847,
      "ĠGreg": 7848,
      "bell": 7849,
      "Ġplate": 7850,
      "ĠKingdom": 7851,
      "Ġfootage": 7852,
      "Ġexception": 7853,
      "Ġgonna": 7854,
      "Ġdoors": 7855,
      "ĠRet": 7856,
      "Ġwithdraw": 7857,
      "Ġalgorith": 7858,
      "Ġriver": 7859,
      "izon": 7860,
      "ĠMcG": 7861,
      "Ġhole": 7862,
      "Ġtoler": 7863,
      "pread": 7864,
      "uce": 7865,
      "eland": 7866,
      "aska": 7867,
      "Ġhistoric": 7868,
      "ounced": 7869,
      "76": 7870,
      "osa": 7871,
      "ĠRand": 7872,
      "ĠLive": 7873,
      "Ġstrikes": 7874,
      "ĠMajor": 7875,
      "ãĢ": 7876,
      "Ġinterface": 7877,
      "etts": 7878,
      "Ġphilosophy": 7879,
      "burgh": 7880,
      "Ġbath": 7881,
      "Ġ%": 7882,
      "ĠMoh": 7883,
      "Ġjournalist": 7884,
      "Before": 7885,
      "Ġstab": 7886,
      "ĠOak": 7887,
      "opher": 7888,
      "ĠLo": 7889,
      "osexual": 7890,
      "Ġ44": 7891,
      "Ġwonderful": 7892,
      "ĠAD": 7893,
      "Ġindicate": 7894,
      "ĠJac": 7895,
      "Ġmel": 7896,
      "ĠThus": 7897,
      "oured": 7898,
      "idespread": 7899,
      "fr": 7900,
      "Ġfault": 7901,
      "Ġdrawing": 7902,
      "asion": 7903,
      "Ġlegend": 7904,
      "Ġscoring": 7905,
      "Ġlanguages": 7906,
      "Ġarrange": 7907,
      "Ġ1960": 7908,
      "Ġborrow": 7909,
      "Ġliked": 7910,
      "Ġmagn": 7911,
      "lan": 7912,
      "ĠRoyal": 7913,
      "Ġcontaining": 7914,
      "Ġneighb": 7915,
      "Ġbridge": 7916,
      "ĠDevelopment": 7917,
      "ĠArm": 7918,
      "Ġedition": 7919,
      "Ġfoundation": 7920,
      "Ġfarmers": 7921,
      "Ġbasketball": 7922,
      "weet": 7923,
      "Ġridic": 7924,
      "rative": 7925,
      "Ġarray": 7926,
      "Ġstruggling": 7927,
      "Ġstable": 7928,
      "Ġnominee": 7929,
      "Ġneutral": 7930,
      "Ġdestruction": 7931,
      "ĠAdministration": 7932,
      "Ġphotograph": 7933,
      "Ġrecognized": 7934,
      "Ġproducer": 7935,
      "Ġuniform": 7936,
      "Ġheaded": 7937,
      "ĠHom": 7938,
      "Ġmanufacturing": 7939,
      "ĠFund": 7940,
      "RS": 7941,
      "aning": 7942,
      "++": 7943,
      "ilipp": 7944,
      "interest": 7945,
      "ĠPremier": 7946,
      "HA": 7947,
      "Ġ->": 7948,
      "Ġsharp": 7949,
      "ĠHarry": 7950,
      "ĠThree": 7951,
      "Ġspark": 7952,
      "ependent": 7953,
      "Ġrely": 7954,
      "Ġbanned": 7955,
      "Ġentering": 7956,
      "arlier": 7957,
      "ĠAS": 7958,
      "ĠMarket": 7959,
      "Ġdinner": 7960,
      "Ġbeliefs": 7961,
      "Ġstructures": 7962,
      "Ġdeliber": 7963,
      "UL": 7964,
      "uper": 7965,
      "Ġroles": 7966,
      "Ġhang": 7967,
      "hy": 7968,
      "jo": 7969,
      "eman": 7970,
      "Ġbacked": 7971,
      "Ġju": 7972,
      "ulating": 7973,
      "ĠHard": 7974,
      "Ġ55": 7975,
      "ĠPoint": 7976,
      "ĠNote": 7977,
      "Ġfinger": 7978,
      "rous": 7979,
      "Ġhired": 7980,
      "ĠAlabama": 7981,
      "Ġmovements": 7982,
      "sylv": 7983,
      "Co": 7984,
      "Ġincent": 7985,
      "lete": 7986,
      "olis": 7987,
      "ĠKir": 7988,
      "Meanwhile": 7989,
      "ĠBry": 7990,
      "ATO": 7991,
      "Ġ1998": 7992,
      "aus": 7993,
      "Ġconvicted": 7994,
      "Ġgift": 7995,
      "Ġtox": 7996,
      "Ġwheel": 7997,
      "rators": 7998,
      "Ġcomponent": 7999,
      "Ġprofession": 8000,
      "teen": 8001,
      "Ġinterviews": 8002,
      "ĠRose": 8003,
      "Ġreduction": 8004,
      "ĠKey": 8005,
      "ĠHit": 8006,
      "Ġcannabis": 8007,
      "ĠVR": 8008,
      "ĠCO": 8009,
      "Ġdelivery": 8010,
      "ĠNic": 8011,
      "ĠNob": 8012,
      "Ġcha": 8013,
      "ĠDiego": 8014,
      "ĠOtt": 8015,
      "ĠCentre": 8016,
      "Ġ2019": 8017,
      "UN": 8018,
      "Ġrestrictions": 8019,
      "away": 8020,
      "Ġ65": 8021,
      "ĠAtlanta": 8022,
      "page": 8023,
      "Ġocean": 8024,
      "then": 8025,
      "Ġachieved": 8026,
      "pat": 8027,
      "ĠPack": 8028,
      "Ġunex": 8029,
      "Ġflaw": 8030,
      "aching": 8031,
      "Ġproven": 8032,
      "amsung": 8033,
      "mate": 8034,
      "ĠReport": 8035,
      "lad": 8036,
      "Those": 8037,
      "ĠAcademy": 8038,
      "Ġeuro": 8039,
      "Ġ47": 8040,
      "Ġconvin": 8041,
      "Ġships": 8042,
      "Ġbranch": 8043,
      "Ġupset": 8044,
      "ĠNext": 8045,
      "President": 8046,
      "ĠJason": 8047,
      "ĠTurkish": 8048,
      "Ġbegun": 8049,
      "Ġproport": 8050,
      "Ġproducing": 8051,
      "abs": 8052,
      "Ġaver": 8053,
      "ĠJudge": 8054,
      "gener": 8055,
      "ho": 8056,
      "Ġforever": 8057,
      "Ġlistening": 8058,
      "âĢĶâĢĶâĢĶâĢĶ": 8059,
      "cription": 8060,
      "Ġhitting": 8061,
      "Ġracist": 8062,
      "Ref": 8063,
      "Ġepisodes": 8064,
      "ouver": 8065,
      "ĠConference": 8066,
      "sylvania": 8067,
      "Ġprocessing": 8068,
      "enny": 8069,
      "400": 8070,
      "ĠFair": 8071,
      "Ġ?": 8072,
      "Ġexternal": 8073,
      "Ġren": 8074,
      "Ġwalls": 8075,
      "ĠField": 8076,
      "achus": 8077,
      "Ġbarely": 8078,
      "Ġdiscrimination": 8079,
      "ĠRadio": 8080,
      "Ġintellectual": 8081,
      "PC": 8082,
      "Ġelectronic": 8083,
      "Ġsuggesting": 8084,
      "Ġutil": 8085,
      "Ġrapidly": 8086,
      "Ġrose": 8087,
      "senal": 8088,
      "ĠPerhaps": 8089,
      "Ġchallenging": 8090,
      "ione": 8091,
      "Ġcontained": 8092,
      "Ġindicated": 8093,
      "Ġcorporations": 8094,
      "ĠMir": 8095,
      "Ġwebsites": 8096,
      "ĠESP": 8097,
      "Ġwidespread": 8098,
      "ĠPen": 8099,
      "ester": 8100,
      "87": 8101,
      "ologists": 8102,
      "ĠMayor": 8103,
      "ĠFC": 8104,
      "ĠBattle": 8105,
      "Star": 8106,
      "ĠEducation": 8107,
      "ĠMusic": 8108,
      "ĠDivision": 8109,
      "ĠDid": 8110,
      "Ġtechnique": 8111,
      "Ġnormally": 8112,
      "bec": 8113,
      "aying": 8114,
      "Ġasks": 8115,
      "riers": 8116,
      "oen": 8117,
      "ĠMid": 8118,
      "ikes": 8119,
      "ĠAbout": 8120,
      "ĠReview": 8121,
      "Ġrepresentative": 8122,
      "ĠReuters": 8123,
      "engers": 8124,
      "Ġdescription": 8125,
      "ĠLatin": 8126,
      "Ġhide": 8127,
      "usive": 8128,
      "ĠLittle": 8129,
      "ĠSquare": 8130,
      "ĠMcCain": 8131,
      "abinet": 8132,
      "PG": 8133,
      "Ġwelf": 8134,
      "Ġbra": 8135,
      "Ġsettlement": 8136,
      "anna": 8137,
      "Ġsmooth": 8138,
      "Ġrecognition": 8139,
      "Ġterrorists": 8140,
      "Ġretired": 8141,
      "Ġillness": 8142,
      "Ġtackle": 8143,
      "ls": 8144,
      "85": 8145,
      "Ġtickets": 8146,
      "Post": 8147,
      "olen": 8148,
      "Mc": 8149,
      "Ġgear": 8150,
      "Ġreaching": 8151,
      "ĠNC": 8152,
      "Ġreducing": 8153,
      "Dav": 8154,
      "Ġequally": 8155,
      "omething": 8156,
      "Ġprogressive": 8157,
      "iy": 8158,
      "Ġjury": 8159,
      "Ġfriendly": 8160,
      "Ġcollapse": 8161,
      "ecut": 8162,
      "Ġwelfare": 8163,
      "ĠFurther": 8164,
      "Ġexclusive": 8165,
      "ĠBrother": 8166,
      "Ġcampaigns": 8167,
      "Ġgrass": 8168,
      "ancouver": 8169,
      "ĠOK": 8170,
      "ĠDig": 8171,
      "Ġ46": 8172,
      "type": 8173,
      "Ġburd": 8174,
      "ĠNSA": 8175,
      "oding": 8176,
      "Ġnotion": 8177,
      "Ġminds": 8178,
      "Ġ41": 8179,
      "achusetts": 8180,
      "Ġexceed": 8181,
      "lessly": 8182,
      "Ġbail": 8183,
      "ĠIII": 8184,
      "ĠInformation": 8185,
      "ĠLy": 8186,
      "Ġtail": 8187,
      "Ġunclear": 8188,
      "ixed": 8189,
      "Ġscores": 8190,
      "Ġcontribute": 8191
    },
    "merges": [
      [
        "Ġ",
        "t"
      ],
      [
        "Ġ",
        "a"
      ],
      [
        "h",
        "e"
      ],
      [
        "i",
        "n"
      ],
      [
        "r",
        "e"
      ],
      [
        "Ġt",
        "he"
      ],
      [
        "o",
        "n"
      ],
      [
        "e",
        "r"
      ],
      [
        "Ġ",
        "s"
      ],
      [
        "Ġ",
        "w"
      ],
      [
        "a",
        "t"
      ],
      [
        "Ġ",
        "o"
      ],
      [
        "e",
        "n"
      ],
      [
        "Ġ",
        "c"
      ],
      [
        "i",
        "t"
      ],
      [
        "i",
        "s"
      ],
      [
        "a",
        "n"
      ],
      [
        "o",
        "r"
      ],
      [
        "Ġ",
        "b"
      ],
      [
        "e",
        "s"
      ],
      [
        "e",
        "d"
      ],
      [
        "Ġ",
        "f"
      ],
      [
        "in",
        "g"
      ],
      [
        "Ġ",
        "p"
      ],
      [
        "o",
        "u"
      ],
      [
        "Ġa",
        "n"
      ],
      [
        "a",
        "l"
      ],
      [
        "Ġt",
        "o"
      ],
      [
        "a",
        "r"
      ],
      [
        "Ġ",
        "m"
      ],
      [
        "Ġ",
        "in"
      ],
      [
        "Ġo",
        "f"
      ],
      [
        "Ġ",
        "h"
      ],
      [
        "Ġ",
        "d"
      ],
      [
        "â",
        "Ģ"
      ],
      [
        "a",
        "s"
      ],
      [
        "i",
        "c"
      ],
      [
        "Ġan",
        "d"
      ],
      [
        "Ġt",
        "h"
      ],
      [
        "l",
        "e"
      ],
      [
        "o",
        "m"
      ],
      [
        "i",
        "on"
      ],
      [
        "l",
        "l"
      ],
      [
        "en",
        "t"
      ],
      [
        "Ġ",
        "n"
      ],
      [
        "Ġ",
        "l"
      ],
      [
        "Ġ",
        "re"
      ],
      [
        "s",
        "t"
      ],
      [
        "v",
        "e"
      ],
      [
        "Ġ",
        "e"
      ],
      [
        "l",
        "y"
      ],
      [
        "r",
        "o"
      ],
      [
        "Ġb",
        "e"
      ],
      [
        "Ġ",
        "g"
      ],
      [
        "i",
        "d"
      ],
      [
        "u",
        "t"
      ],
      [
        "a",
        "c"
      ],
      [
        "o",
        "t"
      ],
      [
        "Ġ",
        "T"
      ],
      [
        "Ġ",
        "I"
      ],
      [
        "Ġth",
        "at"
      ],
      [
        "Ġ",
        "on"
      ],
      [
        "a",
        "y"
      ],
      [
        "Ġ",
        "S"
      ],
      [
        "Ġ",
        "is"
      ],
      [
        "e",
        "t"
      ],
      [
        "i",
        "m"
      ],
      [
        "a",
        "m"
      ],
      [
        "a",
        "d"
      ],
      [
        "o",
        "w"
      ],
      [
        "i",
        "g"
      ],
      [
        "s",
        "e"
      ],
      [
        "Ġf",
        "or"
      ],
      [
        "âĢ",
        "Ļ"
      ],
      [
        "Ġ",
        "A"
      ],
      [
        "v",
        "er"
      ],
      [
        "c",
        "t"
      ],
      [
        "u",
        "r"
      ],
      [
        "l",
        "d"
      ],
      [
        "Ġ",
        "C"
      ],
      [
        "Ġ",
        "u"
      ],
      [
        "Ġs",
        "t"
      ],
      [
        "Ġ",
        "y"
      ],
      [
        "Ġ",
        "it"
      ],
      [
        "Ġ",
        "he"
      ],
      [
        "i",
        "r"
      ],
      [
        "at",
        "ion"
      ],
      [
        "it",
        "h"
      ],
      [
        "Ġw",
        "h"
      ],
      [
        "Ġ",
        "M"
      ],
      [
        "c",
        "e"
      ],
      [
        "t",
        "er"
      ],
      [
        "o",
        "l"
      ],
      [
        "Ġw",
        "e"
      ],
      [
        "i",
        "l"
      ],
      [
        "Ġw",
        "ith"
      ],
      [
        "Ġa",
        "s"
      ],
      [
        "Ġ",
        "B"
      ],
      [
        "c",
        "h"
      ],
      [
        "i",
        "ll"
      ],
      [
        "n",
        "d"
      ],
      [
        "Ġw",
        "as"
      ],
      [
        "Ġ",
        "P"
      ],
      [
        "er",
        "s"
      ],
      [
        "Ġy",
        "ou"
      ],
      [
        "k",
        "e"
      ],
      [
        "Ġ",
        "âĢ"
      ],
      [
        "Ġc",
        "on"
      ],
      [
        "Ġd",
        "e"
      ],
      [
        "Ġ",
        "r"
      ],
      [
        "he",
        "r"
      ],
      [
        "i",
        "f"
      ],
      [
        "at",
        "e"
      ],
      [
        "a",
        "g"
      ],
      [
        "Ġa",
        "t"
      ],
      [
        "Ġ",
        "W"
      ],
      [
        "Ġh",
        "a"
      ],
      [
        "Ġs",
        "e"
      ],
      [
        "Ġ",
        "H"
      ],
      [
        "o",
        "re"
      ],
      [
        "Ġp",
        "ro"
      ],
      [
        "u",
        "l"
      ],
      [
        "p",
        "p"
      ],
      [
        "m",
        "ent"
      ],
      [
        "r",
        "i"
      ],
      [
        "Ġ",
        "D"
      ],
      [
        "Ġa",
        "re"
      ],
      [
        "es",
        "t"
      ],
      [
        "u",
        "s"
      ],
      [
        "Ġc",
        "om"
      ],
      [
        "is",
        "t"
      ],
      [
        "Ġ",
        "1"
      ],
      [
        "an",
        "d"
      ],
      [
        "Ġ",
        "R"
      ],
      [
        "o",
        "p"
      ],
      [
        "a",
        "in"
      ],
      [
        "ĠT",
        "he"
      ],
      [
        "Ġ",
        "2"
      ],
      [
        "ig",
        "h"
      ],
      [
        "r",
        "om"
      ],
      [
        "t",
        "h"
      ],
      [
        "Ġ",
        "("
      ],
      [
        "o",
        "d"
      ],
      [
        "Ġ",
        "F"
      ],
      [
        "Ġn",
        "e"
      ],
      [
        "u",
        "m"
      ],
      [
        "Ġe",
        "x"
      ],
      [
        "u",
        "n"
      ],
      [
        "re",
        "s"
      ],
      [
        "a",
        "b"
      ],
      [
        "âĢ",
        "Ŀ"
      ],
      [
        "Ġn",
        "ot"
      ],
      [
        "Ġ",
        "N"
      ],
      [
        "Ġ",
        "v"
      ],
      [
        "es",
        "s"
      ],
      [
        "it",
        "y"
      ],
      [
        "Ġha",
        "ve"
      ],
      [
        "e",
        "m"
      ],
      [
        "ou",
        "ld"
      ],
      [
        "Ġo",
        "r"
      ],
      [
        "or",
        "t"
      ],
      [
        "Ġb",
        "y"
      ],
      [
        "o",
        "s"
      ],
      [
        "Ġ",
        "G"
      ],
      [
        "an",
        "t"
      ],
      [
        "i",
        "ve"
      ],
      [
        "Ġf",
        "rom"
      ],
      [
        "Ġa",
        "l"
      ],
      [
        "e",
        "l"
      ],
      [
        "'",
        "s"
      ],
      [
        "o",
        "c"
      ],
      [
        "Ġs",
        "u"
      ],
      [
        "ar",
        "t"
      ],
      [
        "Ġ",
        "L"
      ],
      [
        "Ġs",
        "h"
      ],
      [
        "n",
        "t"
      ],
      [
        "Ġth",
        "is"
      ],
      [
        "q",
        "u"
      ],
      [
        "igh",
        "t"
      ],
      [
        "p",
        "e"
      ],
      [
        "u",
        "st"
      ],
      [
        "Ġ",
        "le"
      ],
      [
        "i",
        "es"
      ],
      [
        "Ġ",
        "E"
      ],
      [
        "en",
        "d"
      ],
      [
        "Ġc",
        "h"
      ],
      [
        "Ġs",
        "a"
      ],
      [
        "ou",
        "t"
      ],
      [
        "Ġa",
        "b"
      ],
      [
        "T",
        "he"
      ],
      [
        "al",
        "l"
      ],
      [
        "i",
        "e"
      ],
      [
        "ac",
        "k"
      ],
      [
        "0",
        "0"
      ],
      [
        "re",
        "d"
      ],
      [
        "ĠâĢ",
        "ľ"
      ],
      [
        "al",
        "ly"
      ],
      [
        "Ġh",
        "as"
      ],
      [
        "Ġ",
        "J"
      ],
      [
        "Ġp",
        "l"
      ],
      [
        "Ġg",
        "o"
      ],
      [
        "ar",
        "d"
      ],
      [
        "i",
        "v"
      ],
      [
        "Ġh",
        "is"
      ],
      [
        "om",
        "e"
      ],
      [
        "a",
        "p"
      ],
      [
        "o",
        "st"
      ],
      [
        "g",
        "h"
      ],
      [
        "Ġ",
        "O"
      ],
      [
        "e",
        "ar"
      ],
      [
        "Ġt",
        "r"
      ],
      [
        "ou",
        "r"
      ],
      [
        "as",
        "t"
      ],
      [
        "Ġ",
        "j"
      ],
      [
        "a",
        "k"
      ],
      [
        "u",
        "d"
      ],
      [
        "Ġw",
        "or"
      ],
      [
        "Ġd",
        "o"
      ],
      [
        "Ġthe",
        "y"
      ],
      [
        "Ġb",
        "ut"
      ],
      [
        "r",
        "ou"
      ],
      [
        "g",
        "e"
      ],
      [
        "Ġc",
        "an"
      ],
      [
        "Ġw",
        "ill"
      ],
      [
        "Ġsa",
        "id"
      ],
      [
        "Ġw",
        "he"
      ],
      [
        "Ġ",
        "U"
      ],
      [
        "ic",
        "h"
      ],
      [
        "Ġ",
        "k"
      ],
      [
        "o",
        "k"
      ],
      [
        "Ġa",
        "ll"
      ],
      [
        "Ġ",
        "\""
      ],
      [
        "Ġwh",
        "o"
      ],
      [
        "id",
        "e"
      ],
      [
        "Ġin",
        "t"
      ],
      [
        "am",
        "e"
      ],
      [
        "an",
        "s"
      ],
      [
        "t",
        "her"
      ],
      [
        "i",
        "al"
      ],
      [
        "Ġo",
        "ut"
      ],
      [
        "Ġthe",
        "ir"
      ],
      [
        "f",
        "f"
      ],
      [
        "on",
        "g"
      ],
      [
        "e",
        "ct"
      ],
      [
        "ic",
        "e"
      ],
      [
        "p",
        "l"
      ],
      [
        "u",
        "re"
      ],
      [
        "p",
        "t"
      ],
      [
        "ag",
        "e"
      ],
      [
        "on",
        "e"
      ],
      [
        "Ġm",
        "ore"
      ],
      [
        "ion",
        "s"
      ],
      [
        "ac",
        "t"
      ],
      [
        "i",
        "ke"
      ],
      [
        "Ġm",
        "e"
      ],
      [
        "Ġu",
        "p"
      ],
      [
        "ou",
        "s"
      ],
      [
        "in",
        "e"
      ],
      [
        "Ġa",
        "d"
      ],
      [
        "Ġab",
        "out"
      ],
      [
        "r",
        "a"
      ],
      [
        "at",
        "ed"
      ],
      [
        "b",
        "er"
      ],
      [
        "Ġwe",
        "re"
      ],
      [
        "Ġon",
        "e"
      ],
      [
        "Ġs",
        "o"
      ],
      [
        "Ġu",
        "s"
      ],
      [
        "o",
        "g"
      ],
      [
        "im",
        "e"
      ],
      [
        "e",
        "p"
      ],
      [
        "Ġ",
        "K"
      ],
      [
        "Ġh",
        "ad"
      ],
      [
        "a",
        "re"
      ],
      [
        "i",
        "a"
      ],
      [
        "u",
        "b"
      ],
      [
        "c",
        "c"
      ],
      [
        "Ġw",
        "ould"
      ],
      [
        "Ġ2",
        "0"
      ],
      [
        "Ġc",
        "l"
      ],
      [
        "Ġwh",
        "ich"
      ],
      [
        "Ġ",
        "im"
      ],
      [
        "in",
        "d"
      ],
      [
        "u",
        "e"
      ],
      [
        "a",
        "ke"
      ],
      [
        "i",
        "z"
      ],
      [
        "Ġcon",
        "t"
      ],
      [
        "Ġa",
        "g"
      ],
      [
        "ver",
        "y"
      ],
      [
        "Ġt",
        "e"
      ],
      [
        "Ġof",
        "f"
      ],
      [
        "Ġcom",
        "p"
      ],
      [
        "Ġu",
        "n"
      ],
      [
        "Ġbe",
        "en"
      ],
      [
        "ĠS",
        "t"
      ],
      [
        "Ġ",
        "en"
      ],
      [
        "s",
        "o"
      ],
      [
        "p",
        "er"
      ],
      [
        "ig",
        "n"
      ],
      [
        "a",
        "u"
      ],
      [
        "ĠT",
        "h"
      ],
      [
        "ar",
        "y"
      ],
      [
        "e",
        "w"
      ],
      [
        "i",
        "p"
      ],
      [
        "ac",
        "e"
      ],
      [
        "Ġy",
        "ear"
      ],
      [
        "Ġl",
        "ike"
      ],
      [
        "e",
        "re"
      ],
      [
        "v",
        "en"
      ],
      [
        "o",
        "ok"
      ],
      [
        "Ġin",
        "c"
      ],
      [
        "ay",
        "s"
      ],
      [
        "Ġp",
        "e"
      ],
      [
        "Ġm",
        "an"
      ],
      [
        "r",
        "y"
      ],
      [
        "o",
        "se"
      ],
      [
        "it",
        "e"
      ],
      [
        "Ġre",
        "s"
      ],
      [
        "ab",
        "le"
      ],
      [
        "Ġp",
        "er"
      ],
      [
        "as",
        "s"
      ],
      [
        "Ġs",
        "p"
      ],
      [
        "or",
        "d"
      ],
      [
        "ĠI",
        "n"
      ],
      [
        "i",
        "re"
      ],
      [
        "Ġo",
        "ther"
      ],
      [
        "m",
        "er"
      ],
      [
        "Ġs",
        "ome"
      ],
      [
        "i",
        "le"
      ],
      [
        "en",
        "ce"
      ],
      [
        "i",
        "b"
      ],
      [
        "op",
        "le"
      ],
      [
        "Ġ20",
        "1"
      ],
      [
        "k",
        "s"
      ],
      [
        "ation",
        "s"
      ],
      [
        "Ġo",
        "ver"
      ],
      [
        "ic",
        "al"
      ],
      [
        "Ġthe",
        "re"
      ],
      [
        "res",
        "s"
      ],
      [
        "ul",
        "t"
      ],
      [
        "Ġd",
        "is"
      ],
      [
        "in",
        "t"
      ],
      [
        "Ġne",
        "w"
      ],
      [
        "ow",
        "n"
      ],
      [
        "Ġal",
        "so"
      ],
      [
        "Ġth",
        "an"
      ],
      [
        "Ġa",
        "r"
      ],
      [
        "Ġbe",
        "c"
      ],
      [
        "r",
        "u"
      ],
      [
        "Ġthe",
        "m"
      ],
      [
        "an",
        "ce"
      ],
      [
        "ou",
        "gh"
      ],
      [
        "ou",
        "nt"
      ],
      [
        "Ġa",
        "pp"
      ],
      [
        "p",
        "ort"
      ],
      [
        "Ġwhe",
        "n"
      ],
      [
        "a",
        "il"
      ],
      [
        "Ġp",
        "art"
      ],
      [
        "Ġyou",
        "r"
      ],
      [
        "re",
        "e"
      ],
      [
        "Ġwh",
        "at"
      ],
      [
        "on",
        "d"
      ],
      [
        "Ġpe",
        "ople"
      ],
      [
        "or",
        "m"
      ],
      [
        "Ġs",
        "c"
      ],
      [
        "f",
        "ter"
      ],
      [
        "a",
        "v"
      ],
      [
        "as",
        "e"
      ],
      [
        "Ġ",
        "qu"
      ],
      [
        "ĠC",
        "h"
      ],
      [
        "Ġan",
        "y"
      ],
      [
        "Ġj",
        "ust"
      ],
      [
        "Ġ",
        "Y"
      ],
      [
        "Ġit",
        "s"
      ],
      [
        "ac",
        "h"
      ],
      [
        "Ġt",
        "ime"
      ],
      [
        "ĠI",
        "t"
      ],
      [
        "Ġk",
        "n"
      ],
      [
        "Ġhe",
        "r"
      ],
      [
        "Ġre",
        "c"
      ],
      [
        "l",
        "ic"
      ],
      [
        "en",
        "s"
      ],
      [
        "re",
        "at"
      ],
      [
        "Ġg",
        "et"
      ],
      [
        "Ġ",
        "if"
      ],
      [
        "Ġm",
        "y"
      ],
      [
        "Ġ",
        "3"
      ],
      [
        "Ġ",
        "V"
      ],
      [
        ".",
        "âĢĿ"
      ],
      [
        "i",
        "an"
      ],
      [
        "Ġint",
        "o"
      ],
      [
        "Ġwor",
        "k"
      ],
      [
        "ou",
        "nd"
      ],
      [
        "ir",
        "st"
      ],
      [
        "Ġt",
        "w"
      ],
      [
        "ct",
        "ion"
      ],
      [
        "ve",
        "l"
      ],
      [
        "Ġn",
        "o"
      ],
      [
        "d",
        "u"
      ],
      [
        "ing",
        "s"
      ],
      [
        "or",
        "y"
      ],
      [
        "id",
        "ent"
      ],
      [
        "or",
        "s"
      ],
      [
        "it",
        "ion"
      ],
      [
        "Ġo",
        "ur"
      ],
      [
        "ic",
        "k"
      ],
      [
        "Ġ",
        "-"
      ],
      [
        "o",
        "b"
      ],
      [
        "Ġp",
        "re"
      ],
      [
        "an",
        "g"
      ],
      [
        "o",
        "ve"
      ],
      [
        "am",
        "p"
      ],
      [
        "Ġpl",
        "ay"
      ],
      [
        "w",
        "n"
      ],
      [
        "in",
        "k"
      ],
      [
        "au",
        "se"
      ],
      [
        "t",
        "e"
      ],
      [
        "ad",
        "e"
      ],
      [
        "at",
        "es"
      ],
      [
        "h",
        "ing"
      ],
      [
        "ar",
        "k"
      ],
      [
        "Ġ",
        "ro"
      ],
      [
        "Ġp",
        "ol"
      ],
      [
        "Ġs",
        "he"
      ],
      [
        "ver",
        "s"
      ],
      [
        "Ġc",
        "o"
      ],
      [
        ",",
        "âĢĿ"
      ],
      [
        "Ġa",
        "fter"
      ],
      [
        "Ġ1",
        "9"
      ],
      [
        "ĠH",
        "e"
      ],
      [
        "Ġf",
        "irst"
      ],
      [
        "Ġh",
        "ow"
      ],
      [
        "Ġc",
        "ould"
      ],
      [
        "n",
        "e"
      ],
      [
        "i",
        "ous"
      ],
      [
        "nd",
        "er"
      ],
      [
        "Ġh",
        "im"
      ],
      [
        "Ġa",
        "cc"
      ],
      [
        "i",
        "ld"
      ],
      [
        "a",
        "w"
      ],
      [
        "'",
        "t"
      ],
      [
        "on",
        "s"
      ],
      [
        "Ġp",
        "o"
      ],
      [
        "Ġf",
        "e"
      ],
      [
        "Ġat",
        "t"
      ],
      [
        "Ġon",
        "ly"
      ],
      [
        "ic",
        "t"
      ],
      [
        "he",
        "d"
      ],
      [
        "Ġp",
        "r"
      ],
      [
        "r",
        "it"
      ],
      [
        "Ġtw",
        "o"
      ],
      [
        "o",
        "v"
      ],
      [
        "is",
        "h"
      ],
      [
        "Ġcom",
        "m"
      ],
      [
        "Ġs",
        "pe"
      ],
      [
        "âĢ",
        "ľ"
      ],
      [
        "f",
        "orm"
      ],
      [
        "Ġa",
        "ct"
      ],
      [
        "w",
        "e"
      ],
      [
        "Ġb",
        "l"
      ],
      [
        "er",
        "v"
      ],
      [
        "f",
        "t"
      ],
      [
        "Ġbe",
        "t"
      ],
      [
        ".",
        "\""
      ],
      [
        "Ġde",
        "c"
      ],
      [
        "n",
        "ing"
      ],
      [
        "Ġb",
        "ack"
      ],
      [
        "Ġm",
        "ost"
      ],
      [
        "c",
        "es"
      ],
      [
        "o",
        "od"
      ],
      [
        "c",
        "k"
      ],
      [
        "Ġa",
        "m"
      ],
      [
        "ĠâĢ",
        "ĵ"
      ],
      [
        "Ġd",
        "id"
      ],
      [
        "rou",
        "gh"
      ],
      [
        "if",
        "f"
      ],
      [
        "o",
        "y"
      ],
      [
        "at",
        "er"
      ],
      [
        "rou",
        "nd"
      ],
      [
        "Ġag",
        "ain"
      ],
      [
        "u",
        "al"
      ],
      [
        "Ġd",
        "es"
      ],
      [
        "Ġw",
        "ant"
      ],
      [
        "is",
        "e"
      ],
      [
        "Ġu",
        "nder"
      ],
      [
        "d",
        "ay"
      ],
      [
        "Ġ",
        "4"
      ],
      [
        "se",
        "l"
      ],
      [
        "u",
        "ll"
      ],
      [
        "Ġcon",
        "s"
      ],
      [
        "Ġn",
        "ow"
      ],
      [
        "Ġbec",
        "ause"
      ],
      [
        "ĠâĢ",
        "Ķ"
      ],
      [
        "m",
        "an"
      ],
      [
        "l",
        "ud"
      ],
      [
        "Ġ",
        "$"
      ],
      [
        "Ġyear",
        "s"
      ],
      [
        "ter",
        "n"
      ],
      [
        "ent",
        "s"
      ],
      [
        "ub",
        "lic"
      ],
      [
        "e",
        "c"
      ],
      [
        "Ġe",
        "ven"
      ],
      [
        "is",
        "s"
      ],
      [
        "Ġne",
        "ed"
      ],
      [
        "Ġin",
        "v"
      ],
      [
        "Ġkn",
        "ow"
      ],
      [
        "ĠW",
        "e"
      ],
      [
        ".",
        "."
      ],
      [
        "Ġse",
        "e"
      ],
      [
        "ment",
        "s"
      ],
      [
        "c",
        "ed"
      ],
      [
        "Ġad",
        "d"
      ],
      [
        "t",
        "ing"
      ],
      [
        "Ġin",
        "d"
      ],
      [
        "o",
        "ld"
      ],
      [
        "Ġse",
        "c"
      ],
      [
        ",",
        "\""
      ],
      [
        "f",
        "ore"
      ],
      [
        "u",
        "ch"
      ],
      [
        "Ġe",
        "very"
      ],
      [
        "ur",
        "n"
      ],
      [
        "Ġsu",
        "pp"
      ],
      [
        "Ġ",
        "5"
      ],
      [
        "pe",
        "ct"
      ],
      [
        "Ġm",
        "ake"
      ],
      [
        "oc",
        "k"
      ],
      [
        "ĠU",
        "n"
      ],
      [
        "Ġthe",
        "se"
      ],
      [
        "Ġe",
        "m"
      ],
      [
        "o",
        "ll"
      ],
      [
        "j",
        "ect"
      ],
      [
        "Ġwhe",
        "re"
      ],
      [
        "I",
        "n"
      ],
      [
        "ation",
        "al"
      ],
      [
        "ver",
        "n"
      ],
      [
        "x",
        "t"
      ],
      [
        "Ġb",
        "u"
      ],
      [
        "um",
        "p"
      ],
      [
        "T",
        "h"
      ],
      [
        "Ġl",
        "ook"
      ],
      [
        "os",
        "s"
      ],
      [
        "ĠA",
        "nd"
      ],
      [
        "Ġd",
        "on"
      ],
      [
        "Ġe",
        "v"
      ],
      [
        "at",
        "ing"
      ],
      [
        "Ġw",
        "ay"
      ],
      [
        "Ġbe",
        "ing"
      ],
      [
        "Ġre",
        "m"
      ],
      [
        "Ġr",
        "ight"
      ],
      [
        "Ġ",
        "["
      ],
      [
        "i",
        "ly"
      ],
      [
        "ro",
        "w"
      ],
      [
        "n",
        "g"
      ],
      [
        "Ġm",
        "ay"
      ],
      [
        "le",
        "ct"
      ],
      [
        "Ġthe",
        "n"
      ],
      [
        "ĠT",
        "r"
      ],
      [
        "Ġman",
        "y"
      ],
      [
        "Ġc",
        "all"
      ],
      [
        "Ġd",
        "iff"
      ],
      [
        "ie",
        "w"
      ],
      [
        "Ġre",
        "l"
      ],
      [
        "Ġde",
        "f"
      ],
      [
        "on",
        "t"
      ],
      [
        "ĠB",
        "ut"
      ],
      [
        "Ġinc",
        "lud"
      ],
      [
        "as",
        "ed"
      ],
      [
        "as",
        "on"
      ],
      [
        "i",
        "ed"
      ],
      [
        "mer",
        "ic"
      ],
      [
        "Ġth",
        "ink"
      ],
      [
        "ak",
        "ing"
      ],
      [
        "l",
        "es"
      ],
      [
        "Ġre",
        "g"
      ],
      [
        ")",
        "."
      ],
      [
        "Ġim",
        "p"
      ],
      [
        "ri",
        "b"
      ],
      [
        "it",
        "ed"
      ],
      [
        "at",
        "h"
[...]
